#include "magic_wand_model_data.h"

// We need to keep the data array aligned on some architectures.
#ifdef __has_attribute
#define HAVE_ATTRIBUTE(x) __has_attribute(x)
#else
#define HAVE_ATTRIBUTE(x) 0
#endif
#if HAVE_ATTRIBUTE(aligned) || (defined(__GNUC__) && !defined(__clang__))
#define DATA_ALIGN_ATTRIBUTE __attribute__((aligned(4)))
#else
#define DATA_ALIGN_ATTRIBUTE
#endif

const unsigned char g_magic_wand_model_data[] DATA_ALIGN_ATTRIBUTE = {
  // Paste the data of the char array in `src/model.cc` here
  0x08, 0x00, 0x00, 0x00, 0x54, 0x46, 0x4c, 0x33, 0x62, 0xff, 0xff, 0xff,
  0x03, 0x00, 0x00, 0x00, 0x10, 0x00, 0x00, 0x00, 0x24, 0x00, 0x00, 0x00,
  0x78, 0x00, 0x00, 0x00, 0x24, 0x00, 0x00, 0x00, 0x05, 0x00, 0x00, 0x00,
  0x78, 0x05, 0x00, 0x00, 0xb0, 0x04, 0x00, 0x00, 0xe0, 0x02, 0x00, 0x00,
  0x60, 0x02, 0x00, 0x00, 0x54, 0x01, 0x00, 0x00, 0x01, 0x00, 0x00, 0x00,
  0x78, 0x00, 0x00, 0x00, 0x13, 0x00, 0x00, 0x00, 0x18, 0x30, 0x00, 0x00,
  0x14, 0x30, 0x00, 0x00, 0x20, 0x2f, 0x00, 0x00, 0xa8, 0x2e, 0x00, 0x00,
  0x3c, 0x2e, 0x00, 0x00, 0xec, 0x11, 0x00, 0x00, 0x98, 0x10, 0x00, 0x00,
  0xbc, 0x0e, 0x00, 0x00, 0x60, 0x06, 0x00, 0x00, 0xfc, 0x05, 0x00, 0x00,
  0x78, 0x05, 0x00, 0x00, 0xec, 0x2f, 0x00, 0x00, 0xe8, 0x2f, 0x00, 0x00,
  0xe4, 0x2f, 0x00, 0x00, 0xe0, 0x2f, 0x00, 0x00, 0xdc, 0x2f, 0x00, 0x00,
  0xd8, 0x2f, 0x00, 0x00, 0xd4, 0x2f, 0x00, 0x00, 0xd0, 0x2f, 0x00, 0x00,
  0x0f, 0x00, 0x00, 0x00, 0x4d, 0x4c, 0x49, 0x52, 0x20, 0x43, 0x6f, 0x6e,
  0x76, 0x65, 0x72, 0x74, 0x65, 0x64, 0x2e, 0x00, 0x00, 0x00, 0x0e, 0x00,
  0x18, 0x00, 0x04, 0x00, 0x08, 0x00, 0x0c, 0x00, 0x10, 0x00, 0x14, 0x00,
  0x0e, 0x00, 0x00, 0x00, 0x14, 0x00, 0x00, 0x00, 0x5c, 0x00, 0x00, 0x00,
  0x60, 0x00, 0x00, 0x00, 0x64, 0x00, 0x00, 0x00, 0x84, 0x00, 0x00, 0x00,
  0x12, 0x00, 0x00, 0x00, 0x48, 0x2f, 0x00, 0x00, 0xe4, 0x2e, 0x00, 0x00,
  0x3c, 0x2e, 0x00, 0x00, 0xd8, 0x2d, 0x00, 0x00, 0x70, 0x2d, 0x00, 0x00,
  0x1c, 0x11, 0x00, 0x00, 0xc0, 0x0f, 0x00, 0x00, 0xe4, 0x0d, 0x00, 0x00,
  0xa0, 0x05, 0x00, 0x00, 0x3c, 0x05, 0x00, 0x00, 0xb0, 0x04, 0x00, 0x00,
  0xe8, 0x03, 0x00, 0x00, 0x38, 0x03, 0x00, 0x00, 0xa4, 0x02, 0x00, 0x00,
  0x10, 0x02, 0x00, 0x00, 0x90, 0x01, 0x00, 0x00, 0xfc, 0x00, 0x00, 0x00,
  0x80, 0x00, 0x00, 0x00, 0x01, 0x00, 0x00, 0x00, 0x00, 0x00, 0x00, 0x00,
  0x01, 0x00, 0x00, 0x00, 0x11, 0x00, 0x00, 0x00, 0x08, 0x00, 0x00, 0x00,
  0x1c, 0x04, 0x00, 0x00, 0x58, 0x03, 0x00, 0x00, 0xc8, 0x02, 0x00, 0x00,
  0x24, 0x02, 0x00, 0x00, 0xac, 0x01, 0x00, 0x00, 0x10, 0x01, 0x00, 0x00,
  0x94, 0x00, 0x00, 0x00, 0x10, 0x00, 0x00, 0x00, 0x04, 0x00, 0x00, 0x00,
  0x6d, 0x61, 0x69, 0x6e, 0x00, 0x00, 0x00, 0x00, 0x8e, 0xff, 0xff, 0xff,
  0x00, 0x00, 0x00, 0x09, 0x04, 0x00, 0x00, 0x00, 0x1c, 0x00, 0x00, 0x00,
  0x10, 0x00, 0x00, 0x00, 0x04, 0x00, 0x00, 0x00, 0x0a, 0xd2, 0xff, 0xff,
  0x00, 0x00, 0x80, 0x3f, 0x01, 0x00, 0x00, 0x00, 0x11, 0x00, 0x00, 0x00,
  0x01, 0x00, 0x00, 0x00, 0x10, 0x00, 0x00, 0x00, 0xf6, 0xfb, 0xff, 0xff,
  0x00, 0x00, 0x00, 0x19, 0x01, 0x00, 0x00, 0x00, 0x8a, 0xd1, 0xff, 0xff,
  0x10, 0x00, 0x00, 0x00, 0x12, 0x00, 0x00, 0x00, 0x14, 0x00, 0x00, 0x00,
  0x20, 0x00, 0x00, 0x00, 0x02, 0x00, 0x00, 0x00, 0x01, 0x00, 0x00, 0x00,
  0x04, 0x00, 0x00, 0x00, 0x08, 0x00, 0x00, 0x00, 0x49, 0x64, 0x65, 0x6e,
  0x74, 0x69, 0x74, 0x79, 0x00, 0x00, 0x00, 0x00, 0xc4, 0xd1, 0xff, 0xff,
  0x00, 0x00, 0x0e, 0x00, 0x18, 0x00, 0x08, 0x00, 0x0c, 0x00, 0x10, 0x00,
  0x07, 0x00, 0x14, 0x00, 0x0e, 0x00, 0x00, 0x00, 0x00, 0x00, 0x00, 0x08,
  0x03, 0x00, 0x00, 0x00, 0x18, 0x00, 0x00, 0x00, 0x0c, 0x00, 0x00, 0x00,
  0x04, 0x00, 0x00, 0x00, 0x98, 0xd1, 0xff, 0xff, 0x01, 0x00, 0x00, 0x00,
  0x10, 0x00, 0x00, 0x00, 0x03, 0x00, 0x00, 0x00, 0x0f, 0x00, 0x00, 0x00,
  0x05, 0x00, 0x00, 0x00, 0x02, 0x00, 0x00, 0x00, 0x02, 0xd2, 0xff, 0xff,
  0x10, 0x00, 0x00, 0x00, 0x11, 0x00, 0x00, 0x00, 0x14, 0x00, 0x00, 0x00,
  0x30, 0x00, 0x00, 0x00, 0x02, 0x00, 0x00, 0x00, 0x01, 0x00, 0x00, 0x00,
  0x04, 0x00, 0x00, 0x00, 0x1a, 0x00, 0x00, 0x00, 0x73, 0x65, 0x71, 0x75,
  0x65, 0x6e, 0x74, 0x69, 0x61, 0x6c, 0x2f, 0x64, 0x65, 0x6e, 0x73, 0x65,
  0x5f, 0x31, 0x2f, 0x42, 0x69, 0x61, 0x73, 0x41, 0x64, 0x64, 0x00, 0x00,
  0xf4, 0xd1, 0xff, 0xff, 0xd6, 0xfd, 0xff, 0xff, 0x00, 0x00, 0x00, 0x08,
  0x03, 0x00, 0x00, 0x00, 0x24, 0x00, 0x00, 0x00, 0x18, 0x00, 0x00, 0x00,
  0x0c, 0x00, 0x00, 0x00, 0x00, 0x00, 0x06, 0x00, 0x08, 0x00, 0x07, 0x00,
  0x06, 0x00, 0x00, 0x00, 0x00, 0x00, 0x00, 0x01, 0x01, 0x00, 0x00, 0x00,
  0x0f, 0x00, 0x00, 0x00, 0x03, 0x00, 0x00, 0x00, 0x0e, 0x00, 0x00, 0x00,
  0x04, 0x00, 0x00, 0x00, 0x01, 0x00, 0x00, 0x00, 0xfe, 0xfc, 0xff, 0xff,
  0x00, 0x00, 0x00, 0x09, 0x01, 0x00, 0x00, 0x00, 0x92, 0xd2, 0xff, 0xff,
  0x10, 0x00, 0x00, 0x00, 0x10, 0x00, 0x00, 0x00, 0x14, 0x00, 0x00, 0x00,
  0x2c, 0x00, 0x00, 0x00, 0x02, 0x00, 0x00, 0x00, 0x01, 0x00, 0x00, 0x00,
  0x10, 0x00, 0x00, 0x00, 0x15, 0x00, 0x00, 0x00, 0x73, 0x65, 0x71, 0x75,
  0x65, 0x6e, 0x74, 0x69, 0x61, 0x6c, 0x2f, 0x64, 0x65, 0x6e, 0x73, 0x65,
  0x2f, 0x52, 0x65, 0x6c, 0x75, 0x00, 0x00, 0x00, 0xd8, 0xd2, 0xff, 0xff,
  0x00, 0x00, 0x0a, 0x00, 0x10, 0x00, 0x04, 0x00, 0x08, 0x00, 0x0c, 0x00,
  0x0a, 0x00, 0x00, 0x00, 0x02, 0x00, 0x00, 0x00, 0x10, 0x00, 0x00, 0x00,
  0x04, 0x00, 0x00, 0x00, 0x01, 0x00, 0x00, 0x00, 0x0e, 0x00, 0x00, 0x00,
  0x02, 0x00, 0x00, 0x00, 0x0d, 0x00, 0x00, 0x00, 0x03, 0x00, 0x00, 0x00,
  0x7a, 0xfd, 0xff, 0xff, 0x00, 0x00, 0x00, 0x16, 0x01, 0x00, 0x00, 0x00,
  0x0e, 0xd3, 0xff, 0xff, 0x10, 0x00, 0x00, 0x00, 0x0f, 0x00, 0x00, 0x00,
  0x14, 0x00, 0x00, 0x00, 0x30, 0x00, 0x00, 0x00, 0x02, 0x00, 0x00, 0x00,
  0x01, 0x00, 0x00, 0x00, 0x70, 0x00, 0x00, 0x00, 0x1a, 0x00, 0x00, 0x00,
  0x73, 0x65, 0x71, 0x75, 0x65, 0x6e, 0x74, 0x69, 0x61, 0x6c, 0x2f, 0x66,
  0x6c, 0x61, 0x74, 0x74, 0x65, 0x6e, 0x2f, 0x52, 0x65, 0x73, 0x68, 0x61,
  0x70, 0x65, 0x00, 0x00, 0x00, 0xd3, 0xff, 0xff, 0xe2, 0xfe, 0xff, 0xff,
  0x00, 0x00, 0x00, 0x05, 0x01, 0x00, 0x00, 0x00, 0x38, 0x00, 0x00, 0x00,
  0x2c, 0x00, 0x00, 0x00, 0x14, 0x00, 0x00, 0x00, 0x00, 0x00, 0x0e, 0x00,
  0x14, 0x00, 0x00, 0x00, 0x10, 0x00, 0x0c, 0x00, 0x08, 0x00, 0x04, 0x00,
  0x0e, 0x00, 0x00, 0x00, 0x03, 0x00, 0x00, 0x00, 0x01, 0x00, 0x00, 0x00,
  0x03, 0x00, 0x00, 0x00, 0x01, 0x00, 0x00, 0x00, 0x01, 0x00, 0x00, 0x00,
  0x0d, 0x00, 0x00, 0x00, 0x01, 0x00, 0x00, 0x00, 0x0c, 0x00, 0x00, 0x00,
  0x9e, 0xd3, 0xff, 0xff, 0x10, 0x00, 0x00, 0x00, 0x0e, 0x00, 0x00, 0x00,
  0x1c, 0x00, 0x00, 0x00, 0x40, 0x00, 0x00, 0x00, 0x04, 0x00, 0x00, 0x00,
  0x01, 0x00, 0x00, 0x00, 0x07, 0x00, 0x00, 0x00, 0x01, 0x00, 0x00, 0x00,
  0x10, 0x00, 0x00, 0x00, 0x22, 0x00, 0x00, 0x00, 0x73, 0x65, 0x71, 0x75,
  0x65, 0x6e, 0x74, 0x69, 0x61, 0x6c, 0x2f, 0x6d, 0x61, 0x78, 0x5f, 0x70,
  0x6f, 0x6f, 0x6c, 0x69, 0x6e, 0x67, 0x32, 0x64, 0x5f, 0x31, 0x2f, 0x4d,
  0x61, 0x78, 0x50, 0x6f, 0x6f, 0x6c, 0x00, 0x00, 0xa0, 0xd3, 0xff, 0xff,
  0xc2, 0xfe, 0xff, 0xff, 0x00, 0x00, 0x00, 0x01, 0x24, 0x00, 0x00, 0x00,
  0x18, 0x00, 0x00, 0x00, 0x04, 0x00, 0x00, 0x00, 0xb4, 0xfe, 0xff, 0xff,
  0x01, 0x00, 0x00, 0x00, 0x01, 0x00, 0x00, 0x00, 0x00, 0x00, 0x00, 0x01,
  0x01, 0x00, 0x00, 0x00, 0x0c, 0x00, 0x00, 0x00, 0x03, 0x00, 0x00, 0x00,
  0x0b, 0x00, 0x00, 0x00, 0x07, 0x00, 0x00, 0x00, 0x09, 0x00, 0x00, 0x00,
  0x2e, 0xd4, 0xff, 0xff, 0x10, 0x00, 0x00, 0x00, 0x0d, 0x00, 0x00, 0x00,
  0x1c, 0x00, 0x00, 0x00, 0x2c, 0x00, 0x00, 0x00, 0x04, 0x00, 0x00, 0x00,
  0x01, 0x00, 0x00, 0x00, 0x15, 0x00, 0x00, 0x00, 0x01, 0x00, 0x00, 0x00,
  0x10, 0x00, 0x00, 0x00, 0x0c, 0x00, 0x00, 0x00, 0x74, 0x66, 0x6c, 0x2e,
  0x63, 0x6f, 0x6e, 0x76, 0x5f, 0x32, 0x64, 0x31, 0x00, 0x00, 0x00, 0x00,
  0x74, 0xd4, 0xff, 0xff, 0x00, 0x00, 0x0e, 0x00, 0x1a, 0x00, 0x08, 0x00,
  0x0c, 0x00, 0x10, 0x00, 0x07, 0x00, 0x14, 0x00, 0x0e, 0x00, 0x00, 0x00,
  0x00, 0x00, 0x00, 0x05, 0x01, 0x00, 0x00, 0x00, 0x3c, 0x00, 0x00, 0x00,
  0x30, 0x00, 0x00, 0x00, 0x14, 0x00, 0x00, 0x00, 0x00, 0x00, 0x0e, 0x00,
  0x18, 0x00, 0x17, 0x00, 0x10, 0x00, 0x0c, 0x00, 0x08, 0x00, 0x04, 0x00,
  0x0e, 0x00, 0x00, 0x00, 0x03, 0x00, 0x00, 0x00, 0x03, 0x00, 0x00, 0x00,
  0x03, 0x00, 0x00, 0x00, 0x03, 0x00, 0x00, 0x00, 0x00, 0x00, 0x00, 0x01,
  0x01, 0x00, 0x00, 0x00, 0x0b, 0x00, 0x00, 0x00, 0x01, 0x00, 0x00, 0x00,
  0x0a, 0x00, 0x00, 0x00, 0x46, 0xff, 0xff, 0xff, 0x00, 0x00, 0x00, 0x11,
  0x01, 0x00, 0x00, 0x00, 0xda, 0xd4, 0xff, 0xff, 0x10, 0x00, 0x00, 0x00,
  0x0c, 0x00, 0x00, 0x00, 0x1c, 0x00, 0x00, 0x00, 0x40, 0x00, 0x00, 0x00,
  0x04, 0x00, 0x00, 0x00, 0x01, 0x00, 0x00, 0x00, 0x15, 0x00, 0x00, 0x00,
  0x01, 0x00, 0x00, 0x00, 0x08, 0x00, 0x00, 0x00, 0x20, 0x00, 0x00, 0x00,
  0x73, 0x65, 0x71, 0x75, 0x65, 0x6e, 0x74, 0x69, 0x61, 0x6c, 0x2f, 0x6d,
  0x61, 0x78, 0x5f, 0x70, 0x6f, 0x6f, 0x6c, 0x69, 0x6e, 0x67, 0x32, 0x64,
  0x2f, 0x4d, 0x61, 0x78, 0x50, 0x6f, 0x6f, 0x6c, 0x00, 0x00, 0x00, 0x00,
  0x34, 0xd5, 0xff, 0xff, 0x00, 0x00, 0x0e, 0x00, 0x14, 0x00, 0x00, 0x00,
  0x08, 0x00, 0x0c, 0x00, 0x07, 0x00, 0x10, 0x00, 0x0e, 0x00, 0x00, 0x00,
  0x00, 0x00, 0x00, 0x01, 0x30, 0x00, 0x00, 0x00, 0x24, 0x00, 0x00, 0x00,
  0x10, 0x00, 0x00, 0x00, 0x0c, 0x00, 0x10, 0x00, 0x00, 0x00, 0x04, 0x00,
  0x08, 0x00, 0x0f, 0x00, 0x0c, 0x00, 0x00, 0x00, 0x01, 0x00, 0x00, 0x00,
  0x01, 0x00, 0x00, 0x00, 0x00, 0x00, 0x00, 0x01, 0x01, 0x00, 0x00, 0x00,
  0x0a, 0x00, 0x00, 0x00, 0x03, 0x00, 0x00, 0x00, 0x00, 0x00, 0x00, 0x00,
  0x06, 0x00, 0x00, 0x00, 0x08, 0x00, 0x00, 0x00, 0x00, 0x00, 0x0a, 0x00,
  0x0c, 0x00, 0x07, 0x00, 0x00, 0x00, 0x08, 0x00, 0x0a, 0x00, 0x00, 0x00,
  0x00, 0x00, 0x00, 0x03, 0x01, 0x00, 0x00, 0x00, 0x9e, 0xd5, 0xff, 0xff,
  0x10, 0x00, 0x00, 0x00, 0x0b, 0x00, 0x00, 0x00, 0x1c, 0x00, 0x00, 0x00,
  0x28, 0x00, 0x00, 0x00, 0x04, 0x00, 0x00, 0x00, 0x01, 0x00, 0x00, 0x00,
  0x40, 0x00, 0x00, 0x00, 0x03, 0x00, 0x00, 0x00, 0x08, 0x00, 0x00, 0x00,
  0x0b, 0x00, 0x00, 0x00, 0x74, 0x66, 0x6c, 0x2e, 0x63, 0x6f, 0x6e, 0x76,
  0x5f, 0x32, 0x64, 0x00, 0x88, 0xd5, 0xff, 0xff, 0x7e, 0xd6, 0xff, 0xff,
  0x04, 0x00, 0x00, 0x00, 0x40, 0x00, 0x00, 0x00, 0x6d, 0x92, 0x04, 0xc0,
  0xc6, 0xc9, 0x3d, 0x3f, 0x42, 0x80, 0x8a, 0x3f, 0xab, 0x06, 0x11, 0xc0,
  0xe5, 0xec, 0x4c, 0x3d, 0x2b, 0xfa, 0xb3, 0x3f, 0xf4, 0x6a, 0x04, 0x3f,
  0xe4, 0x7e, 0xe9, 0xbf, 0x4c, 0x37, 0xb7, 0x40, 0x46, 0x39, 0x4e, 0x3e,
  0x86, 0xc3, 0x15, 0x3f, 0x0c, 0x97, 0xe5, 0xbe, 0x99, 0x33, 0x89, 0xbf,
  0x7d, 0x58, 0xf4, 0xbd, 0xff, 0xc5, 0x98, 0x3e, 0x2c, 0xa1, 0xc1, 0x3f,
  0x26, 0xd6, 0xff, 0xff, 0x10, 0x00, 0x00, 0x00, 0x0a, 0x00, 0x00, 0x00,
  0x10, 0x00, 0x00, 0x00, 0x20, 0x00, 0x00, 0x00, 0x01, 0x00, 0x00, 0x00,
  0x10, 0x00, 0x00, 0x00, 0x0d, 0x00, 0x00, 0x00, 0x73, 0x74, 0x64, 0x2e,
  0x63, 0x6f, 0x6e, 0x73, 0x74, 0x61, 0x6e, 0x74, 0x31, 0x00, 0x00, 0x00,
  0x08, 0xd6, 0xff, 0xff, 0xfe, 0xd6, 0xff, 0xff, 0x04, 0x00, 0x00, 0x00,
  0x20, 0x00, 0x00, 0x00, 0x0f, 0xef, 0x23, 0xc0, 0xad, 0x08, 0x33, 0xc0,
  0x69, 0x0f, 0xeb, 0xbe, 0x63, 0x0d, 0x45, 0xc0, 0x0e, 0x31, 0x56, 0xc0,
  0x39, 0x02, 0x03, 0xc0, 0x83, 0xa3, 0x94, 0x3f, 0x95, 0x0b, 0x25, 0xc0,
  0x86, 0xd6, 0xff, 0xff, 0x10, 0x00, 0x00, 0x00, 0x09, 0x00, 0x00, 0x00,
  0x10, 0x00, 0x00, 0x00, 0x20, 0x00, 0x00, 0x00, 0x01, 0x00, 0x00, 0x00,
  0x08, 0x00, 0x00, 0x00, 0x0c, 0x00, 0x00, 0x00, 0x73, 0x74, 0x64, 0x2e,
  0x63, 0x6f, 0x6e, 0x73, 0x74, 0x61, 0x6e, 0x74, 0x00, 0x00, 0x00, 0x00,
  0x68, 0xd6, 0xff, 0xff, 0x5e, 0xd7, 0xff, 0xff, 0x04, 0x00, 0x00, 0x00,
  0x00, 0x08, 0x00, 0x00, 0x03, 0x92, 0xe9, 0xbc, 0x47, 0xec, 0x70, 0xbc,
  0xf2, 0x9a, 0x05, 0x3e, 0xa7, 0xe6, 0xd3, 0xbe, 0x5c, 0x56, 0xa4, 0x3b,
  0xa7, 0x3b, 0x2f, 0xbf, 0xf9, 0x56, 0xc8, 0x3d, 0x25, 0x52, 0xc2, 0x3d,
  0x8a, 0xa4, 0x2a, 0x3e, 0x49, 0x33, 0xc9, 0xbd, 0x3f, 0x3a, 0x30, 0x3e,
  0xcb, 0x9f, 0x55, 0xbe, 0x27, 0x76, 0x85, 0x3d, 0x26, 0x82, 0x87, 0xbf,
  0x2a, 0xbe, 0x40, 0x3e, 0x15, 0xec, 0x21, 0x3e, 0xef, 0x87, 0x5d, 0x3e,
  0x92, 0x20, 0x2e, 0xbe, 0x3c, 0xc9, 0x42, 0xbd, 0xb7, 0x64, 0x89, 0xbd,
  0x5c, 0xe2, 0x89, 0x3d, 0xad, 0xe9, 0x83, 0x3e, 0xfa, 0x8c, 0x90, 0xbd,
  0x95, 0x8c, 0x1e, 0xbe, 0xe0, 0x37, 0x84, 0x3c, 0xe6, 0xda, 0x4d, 0xbe,
  0xb7, 0xf9, 0x9e, 0xbe, 0x37, 0x42, 0x2b, 0xbe, 0x69, 0xc1, 0xb2, 0xbd,
  0x52, 0x8d, 0x6a, 0x3e, 0xda, 0xee, 0x68, 0xbe, 0xc4, 0x60, 0x87, 0x3c,
  0x4f, 0x13, 0xa9, 0xbe, 0xe2, 0xf5, 0x1c, 0xbe, 0x3f, 0x80, 0xc9, 0xbc,
  0x26, 0xfc, 0x80, 0xbe, 0xe0, 0x1b, 0x4a, 0xbf, 0xb7, 0xf0, 0xf3, 0xbd,
  0xdb, 0x0a, 0x9b, 0x3e, 0x0c, 0x61, 0xcd, 0xbe, 0x81, 0x54, 0xbb, 0x3d,
  0xda, 0xd5, 0x10, 0x3e, 0xce, 0xba, 0x91, 0xbe, 0x6c, 0xfe, 0x08, 0xbe,
  0x3d, 0x62, 0x1f, 0xbf, 0xaf, 0x81, 0x0f, 0x3d, 0xc2, 0xf3, 0x64, 0xbd,
  0x91, 0xb2, 0x8e, 0xbd, 0xcc, 0xda, 0xfc, 0x3d, 0x01, 0xc7, 0x5a, 0x3d,
  0xf1, 0xb6, 0xf9, 0x3c, 0x64, 0xcc, 0x1f, 0x3d, 0xe0, 0xc4, 0x0b, 0xbf,
  0xe9, 0x72, 0x22, 0x3b, 0xc3, 0x66, 0x06, 0x3d, 0xfe, 0xa5, 0xf3, 0xbe,
  0x0d, 0xa2, 0xff, 0xbb, 0xbb, 0xe7, 0xbd, 0x3d, 0xc3, 0xcb, 0xa0, 0xbe,
  0xe8, 0xfe, 0xb1, 0xbd, 0x51, 0xa8, 0x5b, 0xbf, 0xad, 0xfd, 0xe3, 0x3d,
  0x17, 0x2f, 0x3b, 0x3e, 0x5a, 0xb2, 0xe8, 0xbe, 0x8b, 0xac, 0xda, 0x3c,
  0x14, 0xb1, 0xc3, 0xbd, 0x35, 0x78, 0xa5, 0x3e, 0x39, 0xb5, 0x51, 0xbd,
  0x42, 0x25, 0x44, 0xbe, 0xb0, 0x62, 0x49, 0xbd, 0xef, 0x9c, 0xbb, 0x3d,
  0x13, 0xa6, 0x39, 0xbe, 0x04, 0x19, 0xc7, 0x3c, 0xbc, 0xd8, 0xe9, 0x3c,
  0x87, 0x2c, 0x8f, 0x3e, 0x4d, 0x03, 0xb8, 0xbd, 0xe5, 0xb7, 0xea, 0xbd,
  0x7f, 0xc9, 0x4c, 0x3b, 0x8c, 0x6d, 0xa0, 0x3e, 0x93, 0xb0, 0xa0, 0xbc,
  0xc0, 0x10, 0x47, 0xbc, 0x42, 0x0c, 0x2f, 0x3e, 0xa8, 0x98, 0xb4, 0x3d,
  0x6b, 0xa4, 0x06, 0xbe, 0x48, 0x43, 0x5c, 0xbc, 0x32, 0xf0, 0x20, 0xbd,
  0x94, 0x1c, 0x15, 0xbd, 0xdd, 0x11, 0x02, 0x3b, 0x0a, 0x92, 0x2b, 0x3d,
  0x19, 0xd8, 0xf1, 0x3b, 0xa3, 0xf7, 0x7e, 0x3d, 0x56, 0xf5, 0xd9, 0xbd,
  0x2e, 0xae, 0x68, 0xbc, 0xad, 0x93, 0x52, 0x3d, 0xc0, 0x3f, 0xd4, 0x3c,
  0x9c, 0x9e, 0x57, 0xbd, 0x53, 0x64, 0x75, 0x3e, 0xb6, 0x8c, 0x86, 0xbe,
  0xae, 0xf4, 0x7d, 0x3d, 0xed, 0x1e, 0xd8, 0xbd, 0x48, 0xc1, 0x4b, 0x3e,
  0x21, 0x51, 0x79, 0xbe, 0x8d, 0xf6, 0xc8, 0xbe, 0xf9, 0x3a, 0x84, 0x3d,
  0xdb, 0xe4, 0x2b, 0xbe, 0x04, 0x97, 0xa6, 0xbd, 0xc0, 0x50, 0xd7, 0xbd,
  0x7e, 0x6e, 0xdc, 0x3d, 0x95, 0x2c, 0x92, 0xbd, 0xb5, 0x06, 0x43, 0x3e,
  0xb4, 0x59, 0x86, 0xbf, 0x5b, 0x03, 0x31, 0xbe, 0x2f, 0x2e, 0xbd, 0xba,
  0x4f, 0x23, 0x8b, 0x3d, 0x2d, 0x81, 0x66, 0xbe, 0x94, 0xd3, 0xc9, 0x3d,
  0x9e, 0x59, 0x15, 0xbf, 0x9a, 0x08, 0x3f, 0x3e, 0xd8, 0xdd, 0x73, 0xbd,
  0x95, 0xd6, 0x4b, 0x3d, 0x3e, 0x26, 0x9c, 0x3e, 0xce, 0x63, 0x3e, 0xbe,
  0x7d, 0x74, 0x03, 0x3c, 0x65, 0xcf, 0x8c, 0xbe, 0x99, 0xb7, 0xfb, 0xbe,
  0x14, 0x0e, 0x63, 0xbd, 0x85, 0xf8, 0x62, 0x3e, 0x2a, 0x49, 0xb6, 0xbd,
  0x6b, 0x87, 0x17, 0x3d, 0x4f, 0xa0, 0xc7, 0xbd, 0xdd, 0x50, 0x31, 0xbe,
  0x77, 0x67, 0x87, 0xbe, 0x3a, 0x70, 0x31, 0x3d, 0x4b, 0x38, 0xcf, 0x3d,
  0x37, 0xa5, 0xba, 0xbe, 0x3c, 0xaf, 0xfe, 0x3e, 0x59, 0x55, 0x0d, 0x3c,
  0xac, 0x02, 0x84, 0xbd, 0xa9, 0xc9, 0x27, 0xbe, 0x19, 0xac, 0x9d, 0xbd,
  0x44, 0x2b, 0x9f, 0xbd, 0x94, 0x7a, 0x83, 0xbe, 0xaa, 0xdd, 0xc4, 0xbe,
  0x2c, 0x28, 0xec, 0xbd, 0xac, 0xbd, 0xed, 0xbe, 0x5c, 0x81, 0x65, 0x3d,
  0x67, 0xa7, 0xb3, 0x3b, 0x1b, 0x5d, 0x3f, 0x3d, 0xae, 0xa9, 0xef, 0xbd,
  0x99, 0x9a, 0x5d, 0xbe, 0x2d, 0x56, 0xfa, 0xbe, 0x98, 0x9c, 0x0f, 0xbe,
  0xb4, 0x17, 0x14, 0xbf, 0x35, 0x5f, 0xe8, 0x3c, 0x08, 0x6e, 0x63, 0xbe,
  0x54, 0xfb, 0x57, 0xbd, 0x3c, 0x79, 0xa9, 0xbd, 0xcb, 0x5e, 0x08, 0xbf,
  0x2c, 0x28, 0xd0, 0xbe, 0x15, 0xe5, 0x0f, 0xbd, 0x11, 0x5e, 0x05, 0xbf,
  0x98, 0x33, 0x5e, 0xbf, 0x74, 0x29, 0x09, 0xbf, 0x40, 0x91, 0x53, 0xbf,
  0xa3, 0xd4, 0x3a, 0xbf, 0x99, 0xfa, 0xab, 0xbe, 0x36, 0x1b, 0x01, 0xbf,
  0x29, 0xb4, 0x1b, 0xbf, 0x78, 0x15, 0x0d, 0x3f, 0x9d, 0xb6, 0xf9, 0xbb,
  0x15, 0xec, 0x77, 0xbe, 0xdd, 0xcc, 0xf3, 0xba, 0xe8, 0x76, 0xe5, 0xbd,
  0x42, 0x5a, 0x05, 0x3e, 0x71, 0x11, 0xea, 0xbd, 0xb2, 0x0e, 0x10, 0xbe,
  0x0f, 0xe1, 0x10, 0xbd, 0xa9, 0x6b, 0x56, 0xbd, 0xb1, 0x1c, 0x8a, 0x3e,
  0x24, 0xf9, 0x93, 0xbd, 0x49, 0x7f, 0x99, 0xbd, 0xc6, 0x71, 0x84, 0x3e,
  0xac, 0x02, 0x90, 0xbb, 0x7e, 0xda, 0x36, 0xbd, 0x40, 0x23, 0xa8, 0x3d,
  0x04, 0x69, 0x99, 0xbd, 0x52, 0x47, 0x37, 0x3e, 0x18, 0x1f, 0xc1, 0xbd,
  0xe3, 0xf8, 0xb6, 0xbc, 0xfb, 0x39, 0x38, 0x3d, 0x27, 0x27, 0x75, 0xbc,
  0x02, 0x85, 0x30, 0xbd, 0x9e, 0x39, 0xde, 0xbd, 0x68, 0xfd, 0x82, 0xbe,
  0x82, 0x8a, 0x9b, 0xbe, 0xa2, 0xbb, 0xee, 0xbd, 0x96, 0x23, 0x3a, 0xbe,
  0x63, 0x77, 0xb1, 0xbd, 0xf4, 0x69, 0x12, 0xbe, 0x6a, 0x42, 0x52, 0xbd,
  0xf2, 0xe8, 0x2d, 0x3f, 0xd0, 0xc7, 0x10, 0xbe, 0x8e, 0x90, 0x22, 0xbe,
  0x6c, 0xea, 0x2a, 0xbd, 0xee, 0x77, 0x20, 0xbe, 0x47, 0x95, 0xe2, 0xbd,
  0xf7, 0x1e, 0x6c, 0xbe, 0x1f, 0x9f, 0xf1, 0xbc, 0x46, 0x5f, 0x9a, 0x3d,
  0x22, 0x36, 0x2d, 0xbd, 0x3b, 0xa5, 0xb9, 0xbb, 0x0f, 0x09, 0x44, 0x3c,
  0x63, 0x69, 0x5b, 0xbd, 0x12, 0xde, 0x61, 0x3d, 0xe0, 0x2b, 0x6c, 0xbe,
  0xf2, 0x16, 0xf9, 0x3c, 0xd9, 0x90, 0x0b, 0x3e, 0x90, 0x52, 0x29, 0xbd,
  0x2c, 0x53, 0x47, 0xbc, 0x23, 0xda, 0x1a, 0x3c, 0xf0, 0x54, 0x1c, 0xbd,
  0x02, 0xf7, 0x24, 0x3d, 0x99, 0x56, 0xc9, 0xbd, 0x3a, 0x85, 0x79, 0xbc,
  0x38, 0x81, 0x41, 0x3d, 0x54, 0xf0, 0x98, 0xbe, 0x96, 0x7a, 0x2a, 0xbe,
  0x01, 0xf2, 0xa1, 0xbc, 0xe8, 0x61, 0x6e, 0x3c, 0x24, 0x41, 0xa9, 0xbe,
  0xab, 0xbd, 0x8f, 0xbe, 0xe2, 0x85, 0xfb, 0xbc, 0x1d, 0x35, 0xf9, 0x3c,
  0x4a, 0x98, 0x98, 0xbe, 0xb9, 0x92, 0x18, 0x3e, 0xff, 0x65, 0xa9, 0xbd,
  0x5d, 0x71, 0xca, 0x3c, 0xaf, 0x37, 0x95, 0xbe, 0x11, 0xa4, 0xe7, 0xbe,
  0x3f, 0x44, 0xcb, 0x3c, 0x50, 0xa9, 0x5b, 0xbe, 0xfd, 0xb1, 0x15, 0x3e,
  0x9b, 0x9c, 0x4a, 0x3d, 0x82, 0xcd, 0xa8, 0x3e, 0xe3, 0x27, 0x69, 0xbd,
  0xf1, 0xf4, 0x32, 0x3e, 0x5e, 0x9a, 0xe6, 0xbe, 0x83, 0xbb, 0x1a, 0xbd,
  0x65, 0x7a, 0x03, 0xbd, 0xab, 0xc1, 0xb2, 0x3b, 0x71, 0x3f, 0xa1, 0xbd,
  0xb5, 0xcf, 0x5b, 0xbd, 0x2e, 0x04, 0x2d, 0xbf, 0x57, 0x0b, 0x89, 0x3e,
  0x81, 0x38, 0xf0, 0x3d, 0xce, 0xb3, 0x12, 0xbe, 0x7a, 0x11, 0x5d, 0xbe,
  0xe0, 0x3b, 0xbf, 0xbe, 0x6b, 0x0c, 0x8e, 0xbe, 0x8e, 0xcd, 0x3f, 0xbe,
  0x4b, 0xd4, 0x36, 0x3d, 0xe2, 0xc9, 0x89, 0xbe, 0x7b, 0x28, 0x89, 0x3d,
  0x03, 0x22, 0xab, 0xbc, 0x1a, 0x44, 0x13, 0xbe, 0x35, 0xa9, 0xfa, 0x3d,
  0x64, 0x2f, 0x35, 0x3e, 0x0f, 0x85, 0xd1, 0xbe, 0xb5, 0x8b, 0x4b, 0xbd,
  0x64, 0x68, 0x42, 0x3d, 0x59, 0x77, 0x0e, 0xbe, 0x5f, 0x79, 0x90, 0xbd,
  0x93, 0x76, 0x60, 0x3d, 0x97, 0xe3, 0x2c, 0xbd, 0x1e, 0xb1, 0x75, 0xbe,
  0xfa, 0x55, 0x7b, 0xbe, 0x07, 0xbc, 0x18, 0xbd, 0x24, 0xdb, 0x0a, 0xbd,
  0x6d, 0x7f, 0x4e, 0x3e, 0xc7, 0x6a, 0xb3, 0xbd, 0x1d, 0x7c, 0x9c, 0xbe,
  0x54, 0x62, 0x52, 0xbe, 0x21, 0x4c, 0xc3, 0xbd, 0x38, 0x72, 0x13, 0xbd,
  0x52, 0x5c, 0xae, 0xbe, 0xb5, 0xf9, 0x2a, 0xbe, 0xef, 0x00, 0x6e, 0x3d,
  0xb2, 0x45, 0x4b, 0xbe, 0x1a, 0x86, 0xc4, 0x3c, 0x09, 0x9f, 0x02, 0xbd,
  0x0b, 0x79, 0x6e, 0xbe, 0xba, 0x38, 0x70, 0xbe, 0x81, 0xd9, 0x38, 0xbd,
  0x2f, 0x2a, 0xc9, 0x3e, 0x1e, 0x19, 0x00, 0xbe, 0xb1, 0x19, 0x85, 0xbc,
  0xb2, 0x77, 0xbe, 0x3d, 0xbd, 0xa7, 0x9e, 0x3d, 0xd3, 0xd3, 0x85, 0xbe,
  0x39, 0x49, 0x5c, 0xbd, 0x82, 0x38, 0x41, 0xbb, 0xf7, 0xb8, 0x67, 0xbe,
  0xed, 0xa3, 0x84, 0xbe, 0xbc, 0xb8, 0xad, 0x3d, 0x06, 0x48, 0x89, 0x3e,
  0x20, 0x91, 0x48, 0x3d, 0x6e, 0xb1, 0x9d, 0xbd, 0x06, 0x9c, 0x60, 0xbd,
  0xe4, 0x5a, 0x92, 0xba, 0x71, 0xe6, 0xb8, 0xbe, 0x9b, 0xe3, 0xa0, 0xbe,
  0xda, 0x16, 0x49, 0x3e, 0x8b, 0x60, 0xaa, 0xbe, 0xd5, 0xfc, 0x73, 0xbc,
  0xaa, 0x0c, 0x85, 0xbe, 0xc1, 0x5c, 0xf2, 0x3b, 0x5d, 0x68, 0x4c, 0x39,
  0x6b, 0xaa, 0xdd, 0x3d, 0xd1, 0xf5, 0x48, 0xbf, 0x32, 0xa8, 0x2b, 0xbe,
  0x97, 0xd5, 0xb1, 0xbe, 0xed, 0xa2, 0x33, 0xbe, 0x87, 0xc4, 0xee, 0xbe,
  0x91, 0x13, 0x38, 0xbc, 0x52, 0xab, 0xa3, 0xbe, 0xff, 0x94, 0xb7, 0xbd,
  0x72, 0x90, 0x98, 0xbc, 0x8d, 0x96, 0xb9, 0xbe, 0xf0, 0x50, 0x26, 0x3e,
  0x50, 0x98, 0x08, 0xbc, 0x87, 0x5f, 0xfe, 0x3e, 0x44, 0x42, 0x89, 0x3d,
  0x77, 0x9a, 0x7b, 0xbd, 0xda, 0x21, 0xbd, 0x3e, 0x17, 0xe1, 0xb5, 0xbc,
  0x97, 0x0d, 0x4c, 0xbe, 0xe7, 0xb9, 0xcb, 0xbd, 0x29, 0x34, 0xfe, 0xbd,
  0x67, 0x88, 0x79, 0x3e, 0x92, 0x35, 0xf3, 0xbd, 0xdd, 0x67, 0x56, 0xbd,
  0x3e, 0x16, 0xa6, 0x3d, 0x47, 0x0d, 0x5d, 0xbe, 0xc4, 0xf7, 0xae, 0xbe,
  0x08, 0xf6, 0x88, 0xbd, 0x5b, 0xbe, 0x05, 0xbe, 0xf3, 0x8a, 0xa7, 0x3c,
  0xbc, 0xdc, 0x78, 0x3d, 0xbb, 0xd5, 0x3e, 0xbd, 0xde, 0x03, 0x9c, 0x3d,
  0x12, 0x6c, 0x1f, 0xbe, 0x3d, 0x85, 0xc8, 0xbd, 0x50, 0xec, 0x7b, 0x3e,
  0xd9, 0x3a, 0xb4, 0xbd, 0x12, 0x9d, 0x8a, 0x3d, 0xa5, 0x2b, 0x77, 0xbe,
  0x9b, 0x38, 0x38, 0xbd, 0x0e, 0x30, 0x7e, 0xbd, 0xe1, 0x4b, 0xab, 0x3e,
  0xea, 0x87, 0x1c, 0xbe, 0xcd, 0xbf, 0xd6, 0x3d, 0x39, 0x19, 0x04, 0xbe,
  0x4b, 0xf1, 0x17, 0xbe, 0xab, 0x87, 0xa0, 0xbe, 0x06, 0xe2, 0x8d, 0x3d,
  0x9f, 0xf9, 0x0c, 0xbe, 0xcc, 0x1c, 0x96, 0xbc, 0xd2, 0x6e, 0x04, 0xbe,
  0x3e, 0x21, 0x20, 0x3e, 0x3e, 0xb7, 0x89, 0xbc, 0xb1, 0xa8, 0x25, 0xbe,
  0x87, 0xb6, 0x24, 0xbe, 0x89, 0x9b, 0x4c, 0xbd, 0xcd, 0x5d, 0x6a, 0xbe,
  0x48, 0x1d, 0xf2, 0xbc, 0xc1, 0x95, 0x82, 0xbd, 0xea, 0xb0, 0x15, 0xbc,
  0x3e, 0xc3, 0xb3, 0x3d, 0x6d, 0x14, 0xfb, 0xbd, 0x6e, 0x9d, 0x0f, 0xbe,
  0x42, 0x36, 0x96, 0xbd, 0x8c, 0x49, 0x6c, 0xbe, 0xcd, 0xf5, 0x4a, 0x3d,
  0x9e, 0x9d, 0xcc, 0xbd, 0x09, 0x05, 0xfd, 0xbd, 0x05, 0xb7, 0x77, 0xbf,
  0x33, 0x6d, 0xf6, 0xbe, 0xe7, 0x57, 0x5c, 0xbe, 0xbf, 0x41, 0x2b, 0xbe,
  0x67, 0x7a, 0xa3, 0xbd, 0x2e, 0x94, 0xaa, 0xbb, 0x5d, 0xe6, 0xa2, 0xbe,
  0xd6, 0x14, 0x33, 0xbd, 0x56, 0xb7, 0x86, 0xbf, 0x19, 0x0b, 0x98, 0x3e,
  0x38, 0xfb, 0xd4, 0xbd, 0x31, 0x44, 0xd7, 0x3d, 0xd7, 0x7b, 0xaf, 0xbe,
  0x1a, 0x48, 0xbb, 0xbe, 0x4b, 0xd7, 0x42, 0xbe, 0x47, 0x91, 0xbc, 0x3d,
  0xa5, 0xe2, 0xac, 0x3d, 0xff, 0xd8, 0xbf, 0x3e, 0xe7, 0xd1, 0x15, 0x3e,
  0x4a, 0xbd, 0x6a, 0x3e, 0x27, 0x64, 0x0a, 0x3e, 0x06, 0xe7, 0x00, 0xbf,
  0x50, 0x0a, 0xb1, 0xbd, 0xf2, 0xab, 0x72, 0xbe, 0xda, 0x3e, 0xe9, 0x3d,
  0x22, 0xec, 0x96, 0xbc, 0xb3, 0x08, 0x76, 0x3e, 0xa8, 0xf7, 0x05, 0xbe,
  0x4b, 0x10, 0x81, 0x3c, 0xfc, 0x71, 0x31, 0x3d, 0xa0, 0x40, 0x12, 0xbe,
  0xa8, 0x1e, 0xe5, 0xbe, 0xfc, 0xa3, 0x52, 0xbe, 0x40, 0x0a, 0x16, 0xbf,
  0xc3, 0xbd, 0x2f, 0xbe, 0x7c, 0x11, 0xe2, 0xbe, 0x2c, 0xa6, 0x13, 0xbe,
  0x0b, 0xe3, 0xb9, 0x3d, 0xfc, 0x42, 0x81, 0xbe, 0x93, 0x6e, 0x8a, 0xbe,
  0x07, 0xac, 0x70, 0xbb, 0x6e, 0x28, 0x2b, 0x3e, 0x04, 0x1a, 0x75, 0x3d,
  0x35, 0xa3, 0x73, 0xbe, 0x48, 0x05, 0x0c, 0xbe, 0x5c, 0x08, 0x7e, 0xbd,
  0x5c, 0x51, 0x83, 0xbe, 0xff, 0xca, 0x49, 0xbd, 0xcb, 0x25, 0xea, 0xbd,
  0xb1, 0xb7, 0xb6, 0xbd, 0x98, 0xee, 0x94, 0xbd, 0xd0, 0xf4, 0xbb, 0xbd,
  0x67, 0x89, 0x97, 0x3e, 0x9f, 0xb6, 0x92, 0x3d, 0x73, 0x62, 0x27, 0xbe,
  0x87, 0x4a, 0xa2, 0xbc, 0x66, 0x2e, 0xa0, 0xbd, 0x30, 0x2e, 0xea, 0x3d,
  0x36, 0x9a, 0x33, 0xbd, 0xe1, 0xc8, 0x90, 0x3d, 0xfd, 0xf3, 0x23, 0x3e,
  0xf1, 0x3d, 0xad, 0xbd, 0x27, 0x7a, 0x74, 0x3e, 0x91, 0x5b, 0xc3, 0xbd,
  0xed, 0xec, 0x11, 0x3f, 0xb4, 0x8c, 0x84, 0xbe, 0xfb, 0x7f, 0x01, 0x3d,
  0xfa, 0xe1, 0x9f, 0xbd, 0xcf, 0x82, 0x61, 0xbe, 0x42, 0x8e, 0x5f, 0xbe,
  0x4b, 0x46, 0xea, 0x3d, 0x25, 0xf0, 0xc4, 0xbe, 0xd1, 0xa3, 0xc8, 0xbd,
  0x0c, 0x6f, 0x8b, 0xbe, 0xb0, 0xdd, 0x63, 0xbe, 0x87, 0x8f, 0xf5, 0xbd,
  0xac, 0x4b, 0xaa, 0xbb, 0x45, 0x03, 0xc7, 0xbe, 0x7b, 0x10, 0x1d, 0xbe,
  0x9f, 0xf1, 0x7e, 0xbe, 0xe3, 0xbc, 0x0a, 0xbe, 0x4f, 0x2f, 0x26, 0x3e,
  0xa4, 0xe0, 0x8a, 0xbb, 0x30, 0x2f, 0x30, 0xbd, 0x21, 0x1f, 0xbc, 0x3c,
  0x90, 0x3d, 0x89, 0xbe, 0xa6, 0xcc, 0x50, 0xbe, 0xaa, 0xb8, 0x1a, 0x3d,
  0xb8, 0xc0, 0x00, 0xbe, 0x27, 0xc1, 0xb5, 0xbc, 0xaa, 0xb5, 0x80, 0x3d,
  0x7d, 0x6b, 0x30, 0xbc, 0xe3, 0x9e, 0x1a, 0x3c, 0x63, 0x8c, 0x7e, 0x3e,
  0xcb, 0x4b, 0x67, 0x3d, 0x4c, 0x1f, 0x07, 0xbe, 0x43, 0x44, 0x37, 0xbe,
  0x53, 0xb9, 0x77, 0xbe, 0x71, 0x9e, 0x09, 0xbe, 0xfa, 0x0a, 0x5f, 0xbe,
  0x14, 0x6a, 0xd9, 0xbc, 0x04, 0x94, 0x9a, 0x3e, 0xbb, 0x9c, 0x24, 0xbe,
  0xfe, 0xb1, 0x21, 0xbd, 0x50, 0x54, 0xd2, 0xbc, 0xdc, 0x71, 0xb5, 0xbd,
  0x70, 0xcf, 0x54, 0xbd, 0x8c, 0x2e, 0x20, 0x3e, 0xd4, 0x3e, 0x3f, 0x3d,
  0x24, 0x4b, 0xf8, 0xbd, 0x5e, 0xb7, 0xdd, 0xbc, 0xd4, 0xc2, 0xb7, 0xbd,
  0x0a, 0x09, 0x46, 0xbe, 0x8c, 0x0c, 0x8a, 0x3e, 0x60, 0xdd, 0x9f, 0x3d,
  0xac, 0x78, 0xe5, 0x3d, 0x93, 0xb2, 0xed, 0x3c, 0xe9, 0x86, 0x84, 0xbd,
  0xa0, 0x5f, 0x95, 0xbd, 0x24, 0xcb, 0x7e, 0xbc, 0xb9, 0x1c, 0x8c, 0x3e,
  0x49, 0x35, 0x53, 0xbe, 0x14, 0x09, 0x84, 0xbd, 0xda, 0x8f, 0x1f, 0x3c,
  0xc1, 0xa3, 0x3e, 0xbb, 0xe1, 0x78, 0x4b, 0xbd, 0x85, 0x75, 0xa0, 0x3e,
  0xc6, 0xde, 0xff, 0xff, 0x10, 0x00, 0x00, 0x00, 0x08, 0x00, 0x00, 0x00,
  0x1c, 0x00, 0x00, 0x00, 0x38, 0x00, 0x00, 0x00, 0x04, 0x00, 0x00, 0x00,
  0x10, 0x00, 0x00, 0x00, 0x04, 0x00, 0x00, 0x00, 0x01, 0x00, 0x00, 0x00,
  0x08, 0x00, 0x00, 0x00, 0x1a, 0x00, 0x00, 0x00, 0x73, 0x65, 0x71, 0x75,
  0x65, 0x6e, 0x74, 0x69, 0x61, 0x6c, 0x2f, 0x63, 0x6f, 0x6e, 0x76, 0x32,
  0x64, 0x5f, 0x31, 0x2f, 0x43, 0x6f, 0x6e, 0x76, 0x32, 0x44, 0x00, 0x00,
  0xc0, 0xde, 0xff, 0xff, 0xb6, 0xdf, 0xff, 0xff, 0x04, 0x00, 0x00, 0x00,
  0x80, 0x01, 0x00, 0x00, 0x82, 0xae, 0xce, 0xbe, 0xeb, 0x8a, 0x24, 0xbe,
  0xec, 0x93, 0x9f, 0xbe, 0xb3, 0x46, 0xb8, 0x3e, 0xa2, 0xc8, 0x0a, 0xbd,
  0xc5, 0x2d, 0xe0, 0xbd, 0x3a, 0x63, 0x61, 0x3e, 0xc9, 0xe1, 0x9d, 0x3c,
  0x6d, 0x30, 0x7a, 0x3d, 0xc9, 0x0e, 0xd2, 0x3d, 0xa2, 0xe3, 0x26, 0x3d,
  0x1e, 0xc4, 0x65, 0x3e, 0x7a, 0x36, 0xae, 0x3d, 0xfe, 0xac, 0x83, 0xbd,
  0x05, 0x49, 0xc1, 0x3e, 0x7d, 0xa6, 0x20, 0x3e, 0xfc, 0xce, 0x7b, 0xbc,
  0xc4, 0xad, 0x45, 0x3d, 0xfc, 0xa7, 0xa4, 0x3d, 0x09, 0x8b, 0x6d, 0x3c,
  0xb6, 0xe6, 0x0a, 0xbe, 0x67, 0x28, 0x39, 0x3d, 0x1e, 0xc5, 0x0d, 0xbd,
  0x87, 0x11, 0x6e, 0xbe, 0xa3, 0xfe, 0x23, 0x3e, 0x6c, 0xbb, 0x02, 0xbc,
  0xb7, 0xf8, 0xa8, 0xbd, 0x93, 0xd3, 0x83, 0xbe, 0x4b, 0x28, 0x10, 0x3d,
  0x17, 0xef, 0x52, 0xbe, 0x64, 0xb4, 0xe0, 0x39, 0x4c, 0xda, 0x26, 0xbe,
  0xee, 0x5a, 0x00, 0x3f, 0x67, 0xe2, 0x46, 0x3e, 0xa2, 0xba, 0x03, 0x3e,
  0x09, 0x3e, 0x99, 0xbe, 0x41, 0x8a, 0x80, 0x3d, 0xf2, 0xa0, 0x05, 0x3d,
  0xab, 0xb9, 0x09, 0xbc, 0x9d, 0x56, 0xef, 0x3c, 0x93, 0x2c, 0x1a, 0xbd,
  0x5c, 0xc9, 0x69, 0x3e, 0x21, 0x5a, 0xbc, 0xbd, 0x64, 0x6a, 0x30, 0x3b,
  0x83, 0x64, 0x4b, 0x3c, 0x72, 0x4c, 0xe9, 0xbd, 0xd4, 0x65, 0xa2, 0x3d,
  0xfb, 0x99, 0x03, 0xbf, 0x37, 0x21, 0xac, 0xbc, 0x73, 0x57, 0xc4, 0xbc,
  0xfb, 0xf4, 0x26, 0x3b, 0xce, 0x65, 0xa4, 0xbd, 0xdb, 0xcf, 0x00, 0xbd,
  0x0d, 0x55, 0x5e, 0x3d, 0x2f, 0x0c, 0x2c, 0x3e, 0xab, 0x7e, 0x86, 0x3d,
  0x27, 0xaf, 0x0e, 0xbd, 0xd2, 0x4b, 0x9a, 0x3c, 0x37, 0x8e, 0xf7, 0x3d,
  0x9c, 0xa8, 0xba, 0x3d, 0x9a, 0xb8, 0x89, 0xbe, 0x5d, 0xfa, 0x26, 0xbe,
  0x47, 0xff, 0xca, 0x3d, 0xd5, 0x05, 0xf9, 0xbc, 0xb6, 0x28, 0x05, 0xbe,
  0x11, 0x38, 0x5c, 0x3e, 0xb7, 0x2b, 0x05, 0xbe, 0x36, 0x73, 0xb3, 0x3d,
  0xae, 0xb1, 0x42, 0xbe, 0xab, 0xb5, 0x44, 0xbe, 0x1d, 0x48, 0x81, 0x3c,
  0x1c, 0xce, 0x82, 0xbe, 0xfe, 0x55, 0xd3, 0xbc, 0x01, 0xcd, 0x31, 0xbd,
  0x09, 0x2f, 0x94, 0xbe, 0x0a, 0xfe, 0xd3, 0x3e, 0x8b, 0xcd, 0xed, 0xbd,
  0x50, 0x9a, 0xa6, 0xbe, 0xee, 0x97, 0x95, 0x3b, 0x31, 0x21, 0xaf, 0x3c,
  0xf1, 0xcc, 0x0a, 0x3b, 0xa3, 0x57, 0x8a, 0xbe, 0xa2, 0xdd, 0xb3, 0x3d,
  0x65, 0x0e, 0x10, 0xbd, 0x23, 0xd9, 0x42, 0xbe, 0x62, 0x22, 0x1c, 0x3d,
  0x44, 0x11, 0x9f, 0x3d, 0xdc, 0x43, 0xe9, 0xbd, 0x8d, 0x75, 0x33, 0xbc,
  0x8d, 0x8f, 0x0c, 0x3d, 0x4d, 0x25, 0x08, 0x3e, 0xeb, 0x75, 0x49, 0xbc,
  0x32, 0x99, 0x53, 0xbc, 0xff, 0x4d, 0xaf, 0x3e, 0xfa, 0x48, 0x08, 0xbb,
  0x16, 0x4d, 0x8e, 0xbc, 0x9e, 0xe0, 0xff, 0xff, 0x10, 0x00, 0x00, 0x00,
  0x07, 0x00, 0x00, 0x00, 0x1c, 0x00, 0x00, 0x00, 0x38, 0x00, 0x00, 0x00,
  0x04, 0x00, 0x00, 0x00, 0x08, 0x00, 0x00, 0x00, 0x04, 0x00, 0x00, 0x00,
  0x03, 0x00, 0x00, 0x00, 0x01, 0x00, 0x00, 0x00, 0x18, 0x00, 0x00, 0x00,
  0x73, 0x65, 0x71, 0x75, 0x65, 0x6e, 0x74, 0x69, 0x61, 0x6c, 0x2f, 0x63,
  0x6f, 0x6e, 0x76, 0x32, 0x64, 0x2f, 0x43, 0x6f, 0x6e, 0x76, 0x32, 0x44,
  0x00, 0x00, 0x00, 0x00, 0x98, 0xe0, 0xff, 0xff, 0x8e, 0xe1, 0xff, 0xff,
  0x04, 0x00, 0x00, 0x00, 0x00, 0x01, 0x00, 0x00, 0x36, 0x37, 0x1a, 0x3e,
  0x29, 0xf0, 0x18, 0x3e, 0x96, 0x6b, 0xff, 0x3d, 0x85, 0x01, 0xd3, 0xbe,
  0x0f, 0x74, 0xc2, 0x3d, 0xbb, 0xc7, 0x90, 0xbd, 0x2e, 0x3c, 0x01, 0xbd,
  0xec, 0x9d, 0x84, 0xbe, 0xa2, 0xd2, 0xbd, 0xbe, 0x18, 0x9c, 0x00, 0x3d,
  0x12, 0x79, 0x3d, 0x3e, 0x1a, 0x82, 0x9a, 0x3b, 0xd2, 0x2b, 0x5b, 0x3e,
  0x2b, 0xe0, 0x67, 0x3e, 0x3d, 0x0b, 0xb8, 0x3e, 0x90, 0x00, 0x32, 0x3e,
  0xaa, 0xa2, 0xd0, 0xbe, 0x7b, 0x4c, 0x0f, 0x3d, 0xb7, 0x75, 0xc6, 0xbe,
  0xce, 0x00, 0xfb, 0xbe, 0xf9, 0xdd, 0xd5, 0x3c, 0x3f, 0xea, 0xfa, 0xbd,
  0x6a, 0xdd, 0x89, 0x3d, 0xf3, 0x67, 0x8f, 0xbe, 0x8e, 0xe0, 0xca, 0xbe,
  0xe6, 0x23, 0x11, 0xbd, 0xe9, 0xd0, 0x61, 0x3e, 0x55, 0x16, 0xc5, 0x3c,
  0x13, 0x1c, 0xae, 0x3d, 0xd1, 0x2d, 0x3e, 0x3e, 0xdf, 0xc4, 0x4e, 0x3e,
  0x2c, 0xdf, 0x6a, 0x3e, 0x97, 0x57, 0xbe, 0x3d, 0x6b, 0x18, 0x71, 0x3d,
  0x50, 0x47, 0x20, 0x3e, 0x4c, 0xca, 0xbc, 0xbe, 0x38, 0xe1, 0x55, 0x3d,
  0xdb, 0x07, 0x46, 0xbd, 0x47, 0x6b, 0x21, 0x3e, 0xea, 0xdf, 0x77, 0xbe,
  0x69, 0xdc, 0xb7, 0xbe, 0xb4, 0x8e, 0xfb, 0x3d, 0x75, 0x50, 0x3d, 0x3e,
  0x47, 0x67, 0x0f, 0x3e, 0xad, 0xd8, 0x40, 0x3e, 0x57, 0x65, 0x34, 0x3e,
  0x12, 0x02, 0x84, 0x3e, 0x9b, 0xe2, 0xf3, 0x3c, 0xaa, 0x8c, 0x0f, 0xbe,
  0x25, 0x9c, 0xf8, 0x3d, 0x06, 0xba, 0x3e, 0x3e, 0x7e, 0xd2, 0xb4, 0xbe,
  0x7c, 0x30, 0x78, 0x3d, 0x5e, 0x73, 0x98, 0xbc, 0x4c, 0xee, 0xcf, 0x3d,
  0xdf, 0x0b, 0x5b, 0xbe, 0x5b, 0x45, 0xad, 0xbe, 0x55, 0xbd, 0x3c, 0x3d,
  0x43, 0xd5, 0x31, 0x3e, 0xe9, 0xb8, 0xe3, 0x3d, 0x35, 0x7a, 0x28, 0x3e,
  0x36, 0xd2, 0x4e, 0x3e, 0x26, 0x3a, 0xb4, 0x3e, 0x4b, 0x4a, 0x2a, 0x3e,
  0xf6, 0xe1, 0xff, 0xff, 0x10, 0x00, 0x00, 0x00, 0x06, 0x00, 0x00, 0x00,
  0x14, 0x00, 0x00, 0x00, 0x30, 0x00, 0x00, 0x00, 0x02, 0x00, 0x00, 0x00,
  0x04, 0x00, 0x00, 0x00, 0x10, 0x00, 0x00, 0x00, 0x19, 0x00, 0x00, 0x00,
  0x73, 0x65, 0x71, 0x75, 0x65, 0x6e, 0x74, 0x69, 0x61, 0x6c, 0x2f, 0x64,
  0x65, 0x6e, 0x73, 0x65, 0x5f, 0x31, 0x2f, 0x4d, 0x61, 0x74, 0x4d, 0x75,
  0x6c, 0x00, 0x00, 0x00, 0xe8, 0xe1, 0xff, 0xff, 0xde, 0xe2, 0xff, 0xff,
  0x04, 0x00, 0x00, 0x00, 0x00, 0x1c, 0x00, 0x00, 0xb5, 0x7e, 0x48, 0xbe,
  0xe7, 0x95, 0xf3, 0xbd, 0x0a, 0x18, 0x52, 0xbe, 0x71, 0x0e, 0x93, 0xbe,
  0xcd, 0x74, 0x96, 0xbc, 0xb4, 0xdb, 0x47, 0xbe, 0x03, 0xc7, 0x95, 0xbd,
  0xda, 0x1a, 0xb2, 0xbd, 0xbf, 0x49, 0x94, 0x3d, 0x85, 0x7e, 0x1d, 0xbe,
  0x9b, 0x9d, 0xc2, 0xbb, 0xc2, 0x8e, 0xde, 0x3a, 0x45, 0xb3, 0xfe, 0xbd,
  0xa6, 0x29, 0x51, 0x3d, 0x75, 0x01, 0x8a, 0x3d, 0xaa, 0x1b, 0x47, 0xbe,
  0x6e, 0x16, 0xac, 0xbe, 0xa4, 0x6b, 0x93, 0x3d, 0x88, 0x35, 0x49, 0xbe,
  0xe2, 0x38, 0x2b, 0xbd, 0x49, 0x70, 0x4a, 0xbe, 0x33, 0x39, 0x1e, 0x3e,
  0xd2, 0xe7, 0x6a, 0x3d, 0xac, 0x00, 0x0c, 0xbd, 0x5b, 0xdf, 0xff, 0x3d,
  0xd6, 0x52, 0x91, 0xbe, 0x5e, 0x30, 0x25, 0xbe, 0x15, 0xde, 0xa9, 0x3c,
  0x9b, 0x3d, 0x39, 0xbd, 0x62, 0x7a, 0xa1, 0xbd, 0x66, 0x50, 0xa1, 0x3b,
  0xc5, 0xaf, 0xeb, 0xbe, 0xab, 0x1b, 0xd7, 0xbe, 0xbf, 0xbd, 0x30, 0x3e,
  0xca, 0x22, 0x8b, 0xbc, 0x92, 0x51, 0x1e, 0xbd, 0xc5, 0x4a, 0x09, 0xbe,
  0xfa, 0x0b, 0x1f, 0x3e, 0x4c, 0xc3, 0x2b, 0xbe, 0x16, 0x87, 0x98, 0xbc,
  0x8e, 0xa9, 0x65, 0xbe, 0xb5, 0x1e, 0x44, 0xbe, 0xd9, 0x54, 0x05, 0xbe,
  0x39, 0xc2, 0x30, 0xbe, 0x27, 0x2b, 0xd2, 0xbd, 0x52, 0x56, 0xe8, 0x3c,
  0x8c, 0xc5, 0xe2, 0xbd, 0x0b, 0xc6, 0x08, 0xbe, 0xa5, 0xbb, 0x84, 0xbe,
  0xdb, 0xc6, 0x93, 0xbd, 0x5a, 0x4b, 0x92, 0xbe, 0x6c, 0xa0, 0x97, 0x3d,
  0xf5, 0x6a, 0x9c, 0x3c, 0xfe, 0xa8, 0x4e, 0x3c, 0xdb, 0xe7, 0x3d, 0xbe,
  0x40, 0xf6, 0x97, 0x3d, 0x07, 0x5a, 0x22, 0xbe, 0x83, 0x56, 0x1a, 0xbd,
  0x41, 0x95, 0x1c, 0xbe, 0xd0, 0xce, 0xbf, 0xbc, 0xec, 0x8b, 0x20, 0xbe,
  0x7e, 0x79, 0x16, 0x3d, 0x8b, 0xab, 0x07, 0x3e, 0xcf, 0x74, 0xbb, 0xbe,
  0x02, 0x55, 0x84, 0xbe, 0x47, 0x19, 0x36, 0xbe, 0x4d, 0x2b, 0x5b, 0xbe,
  0xe3, 0x0b, 0x0d, 0xbe, 0xce, 0xcd, 0x3c, 0xbe, 0x41, 0x8a, 0x5a, 0xbe,
  0xdf, 0xef, 0x12, 0xbe, 0xbf, 0xb6, 0xae, 0xbe, 0xff, 0x85, 0x61, 0xbe,
  0x70, 0xc8, 0x89, 0xbe, 0x39, 0x8e, 0xd2, 0xbb, 0xa7, 0x1e, 0x2b, 0xbe,
  0xd7, 0x09, 0x83, 0xbe, 0x89, 0xe0, 0x7c, 0xbe, 0xe2, 0xbf, 0x25, 0x3d,
  0x18, 0x13, 0x78, 0xbe, 0x15, 0xc0, 0xbd, 0xbe, 0xab, 0x75, 0x55, 0xbd,
  0xd0, 0x5f, 0x76, 0xbd, 0x31, 0x8a, 0xac, 0x3c, 0xa6, 0xe9, 0x9c, 0x3d,
  0x02, 0xbc, 0xaf, 0xbd, 0x75, 0x20, 0xe8, 0xbd, 0xe7, 0xbe, 0x6f, 0xbd,
  0x48, 0xa9, 0x29, 0x3e, 0xfe, 0x41, 0x25, 0xbe, 0x38, 0x71, 0x6c, 0xbe,
  0x6c, 0x4f, 0xec, 0xbd, 0x46, 0x35, 0x52, 0xbe, 0x25, 0x1f, 0x99, 0xbd,
  0xba, 0xe7, 0xa5, 0xbd, 0xd5, 0x32, 0x12, 0xbe, 0x77, 0xe4, 0x20, 0xbe,
  0xad, 0x46, 0x51, 0xbd, 0x94, 0x17, 0xa8, 0xbc, 0x9d, 0x56, 0x2f, 0xbc,
  0xbb, 0x6a, 0x44, 0x3d, 0x12, 0x91, 0x25, 0xbe, 0x11, 0x5f, 0x46, 0xbe,
  0x53, 0x80, 0x1a, 0xbe, 0x16, 0xff, 0x3d, 0xbd, 0xfd, 0xad, 0x6e, 0xbe,
  0xc3, 0xe8, 0x07, 0xbe, 0x84, 0x03, 0xd8, 0x3d, 0xbb, 0x08, 0xa8, 0xbd,
  0xb7, 0xf9, 0x34, 0x3d, 0x4d, 0xec, 0x67, 0x3d, 0x63, 0x38, 0x69, 0xbe,
  0xad, 0x1e, 0x60, 0xbd, 0xd3, 0xeb, 0x94, 0x3d, 0x58, 0x58, 0xac, 0xbe,
  0xb2, 0xea, 0x40, 0x3d, 0x44, 0xa6, 0x70, 0xbe, 0xd3, 0x72, 0x34, 0xbe,
  0xf6, 0x6a, 0x9a, 0xbc, 0xa6, 0x53, 0x6a, 0xbe, 0xee, 0xd3, 0x2a, 0x3d,
  0x41, 0xbe, 0x3d, 0xbe, 0x12, 0xc0, 0xfc, 0xbd, 0x71, 0xa8, 0x36, 0x3e,
  0xca, 0x58, 0x77, 0xbc, 0x64, 0x82, 0xb6, 0xbc, 0xe4, 0x3f, 0x07, 0xbd,
  0x26, 0xd5, 0xfd, 0xbc, 0x4c, 0x97, 0x5f, 0xbe, 0xcf, 0x73, 0x91, 0xbd,
  0x03, 0xf0, 0xe9, 0xbe, 0x5e, 0x64, 0x4d, 0xbd, 0x2f, 0x6d, 0xe6, 0xbd,
  0xa3, 0xe5, 0x05, 0xbe, 0x3d, 0x17, 0x01, 0xbd, 0x90, 0x86, 0xf3, 0xbd,
  0x3e, 0xb9, 0x1e, 0xbe, 0x5c, 0xb0, 0x91, 0xbe, 0xe5, 0x83, 0x34, 0x3d,
  0xc8, 0xc6, 0x18, 0xbe, 0xfa, 0xe0, 0x85, 0x3d, 0xbc, 0xa6, 0xd7, 0x3d,
  0xe4, 0x36, 0x06, 0xbe, 0x2e, 0xe8, 0xf2, 0xbd, 0xa5, 0x1e, 0x90, 0xbe,
  0x08, 0xad, 0x2d, 0xbe, 0x8a, 0xb7, 0x3b, 0xbe, 0xb7, 0xd6, 0x07, 0xbe,
  0xba, 0x82, 0x97, 0xbc, 0x60, 0x2b, 0x43, 0x3d, 0xec, 0xb3, 0x66, 0xbe,
  0xa6, 0x14, 0xb1, 0xbd, 0x02, 0xc5, 0x4d, 0xbe, 0x24, 0x1e, 0x81, 0xbe,
  0x35, 0x97, 0x6d, 0xbe, 0x3c, 0x3a, 0xd3, 0x3d, 0x3b, 0x6f, 0xdb, 0xbd,
  0x49, 0x9e, 0x86, 0xbe, 0xa5, 0x88, 0xb8, 0x3d, 0x3d, 0xc8, 0x02, 0xbe,
  0xda, 0xe5, 0x02, 0xbe, 0x5b, 0x64, 0x7a, 0xbe, 0x30, 0x6c, 0xcf, 0xbd,
  0xa1, 0xa5, 0xe1, 0x3d, 0xdc, 0x9a, 0xe8, 0x3d, 0x04, 0x32, 0x0e, 0xbe,
  0xdb, 0x07, 0x88, 0x3d, 0xcf, 0xfb, 0x45, 0x3e, 0x84, 0x03, 0x3c, 0x3e,
  0xb8, 0x63, 0x89, 0xbe, 0x92, 0xcd, 0x82, 0xbe, 0x29, 0x52, 0x19, 0xbe,
  0x6f, 0xdb, 0x16, 0xbc, 0x6a, 0xc2, 0xad, 0xbe, 0xcb, 0x69, 0x83, 0xbc,
  0xfd, 0xbc, 0xf4, 0xbd, 0x23, 0xda, 0x84, 0xbd, 0xdb, 0x9f, 0xf0, 0xbd,
  0x14, 0xcf, 0x81, 0xbe, 0xe7, 0x65, 0x4a, 0xbe, 0x3f, 0xde, 0x3a, 0xbd,
  0x81, 0xc4, 0x32, 0xbd, 0x1e, 0xd8, 0xa3, 0xbe, 0xe5, 0xf0, 0x7d, 0x3c,
  0xbd, 0x2b, 0x8f, 0xbd, 0x49, 0x79, 0x75, 0xbe, 0x08, 0x6f, 0x69, 0x3c,
  0x8a, 0xd4, 0x96, 0xbd, 0xb6, 0xa2, 0xc3, 0x3c, 0x76, 0x02, 0xe1, 0x3c,
  0x71, 0x51, 0xfb, 0xbd, 0x5a, 0x40, 0x90, 0x3e, 0x64, 0x78, 0x3d, 0xbe,
  0xf7, 0x87, 0xc5, 0xbd, 0x63, 0x84, 0xa2, 0xbd, 0x0b, 0xb8, 0x37, 0x3d,
  0x4b, 0x6e, 0x24, 0x3d, 0x85, 0x44, 0xda, 0xbd, 0x11, 0x36, 0x96, 0xbe,
  0x02, 0xbf, 0xb5, 0x3d, 0xf0, 0xb3, 0x0f, 0xbe, 0x4d, 0xc8, 0xba, 0xbd,
  0x65, 0x80, 0x63, 0xbe, 0xbe, 0xac, 0x6e, 0x3d, 0xe0, 0xd0, 0x24, 0x3e,
  0xa6, 0x29, 0x7b, 0xbe, 0x80, 0x5b, 0x1d, 0xbe, 0xb4, 0xf2, 0x4b, 0x3d,
  0x5f, 0x47, 0x9d, 0xbd, 0xf9, 0xaf, 0x1f, 0x3e, 0x6e, 0x59, 0x61, 0x3d,
  0x93, 0x66, 0x74, 0x3d, 0xef, 0x3d, 0x5c, 0xbe, 0x85, 0x20, 0xc2, 0xbd,
  0x92, 0xb2, 0x9c, 0xbd, 0x13, 0x56, 0xa9, 0xbd, 0xc7, 0x0e, 0x4f, 0x3e,
  0x7a, 0x7e, 0x3a, 0xbe, 0x0b, 0xf6, 0x9f, 0x3d, 0xe7, 0x78, 0x5a, 0x3d,
  0xbb, 0x52, 0x9f, 0x3e, 0x41, 0xe6, 0x1c, 0x3c, 0x3c, 0x47, 0x07, 0xbd,
  0xf0, 0xe9, 0x5b, 0x3c, 0xba, 0x02, 0x42, 0xbe, 0x8c, 0x95, 0x28, 0x3d,
  0x80, 0xaf, 0x2a, 0x3d, 0x49, 0x26, 0x31, 0xbd, 0xdd, 0x8a, 0x90, 0xbe,
  0x33, 0x09, 0x93, 0x3c, 0x5c, 0x46, 0xa9, 0xbe, 0xe9, 0x66, 0xa4, 0xbe,
  0x9f, 0xa6, 0xab, 0xbd, 0x61, 0x83, 0x23, 0x3c, 0xab, 0xb0, 0x19, 0x3e,
  0x78, 0x7c, 0x78, 0x3d, 0x5e, 0x01, 0x20, 0xbe, 0x3f, 0xe3, 0x8f, 0x3e,
  0x2c, 0xdb, 0x35, 0x3e, 0x0d, 0xfd, 0xdb, 0xbe, 0xd8, 0xe6, 0x82, 0xbe,
  0xea, 0x9b, 0x3c, 0xbe, 0x68, 0x54, 0x6d, 0xbe, 0x15, 0x69, 0x8e, 0xbd,
  0x42, 0xe0, 0x93, 0xbe, 0xda, 0x13, 0xf9, 0xbd, 0x73, 0xb7, 0x0f, 0x3d,
  0x97, 0x3c, 0x17, 0xbe, 0x17, 0xc1, 0x70, 0x3d, 0xd2, 0x00, 0x6d, 0xbe,
  0x7c, 0x86, 0x85, 0x3c, 0x14, 0x98, 0xbf, 0x3b, 0x49, 0x11, 0x8d, 0x3e,
  0xdd, 0x26, 0xc3, 0x3d, 0x96, 0xd2, 0x02, 0x3e, 0x36, 0x1a, 0xda, 0xbc,
  0xcc, 0x57, 0x98, 0xbe, 0xef, 0x89, 0xa5, 0xbc, 0x7f, 0x73, 0xd6, 0xbd,
  0x9c, 0x4f, 0x82, 0xbe, 0xff, 0xb7, 0x2a, 0x3c, 0xe2, 0x4a, 0x29, 0x3d,
  0x6b, 0xf7, 0xbc, 0x3c, 0x91, 0x75, 0xe4, 0xbc, 0xf0, 0xc1, 0x9c, 0x3d,
  0x0c, 0xd8, 0xac, 0xbd, 0xc6, 0xbd, 0x70, 0x3c, 0x38, 0x9f, 0xd9, 0xbd,
  0x48, 0xbc, 0x0b, 0xbc, 0x1c, 0x59, 0x3c, 0x3e, 0xb4, 0xe7, 0x8a, 0x3d,
  0xa0, 0xef, 0x3b, 0xbd, 0xad, 0xaa, 0x73, 0x3d, 0xf2, 0x78, 0x6c, 0x3d,
  0x66, 0xfe, 0x16, 0xbd, 0x58, 0xa6, 0x6b, 0x3d, 0xff, 0xbd, 0xc8, 0xbc,
  0x30, 0xff, 0x8c, 0xbe, 0xf2, 0xbe, 0xa1, 0xbd, 0x94, 0xc1, 0xe6, 0xbd,
  0x48, 0x66, 0xe0, 0x3d, 0x7c, 0xd2, 0x4c, 0x3d, 0xa1, 0xf6, 0xf9, 0xbd,
  0xe3, 0x0b, 0x07, 0xbe, 0x7e, 0x0b, 0x49, 0x3d, 0xd2, 0x3b, 0x1b, 0xbe,
  0x27, 0x7b, 0xfd, 0x3c, 0xf9, 0xd4, 0x56, 0xbd, 0xf4, 0x47, 0xce, 0xbe,
  0x9e, 0x3d, 0x89, 0xbe, 0x89, 0x59, 0x25, 0x3d, 0x5a, 0xa6, 0xe2, 0xbd,
  0xc5, 0x0d, 0x35, 0x3d, 0x28, 0xb9, 0x88, 0xbe, 0xcf, 0xb7, 0xbc, 0xbb,
  0x58, 0x7a, 0x2e, 0xbe, 0xe0, 0xe2, 0xde, 0x3d, 0x03, 0x19, 0x13, 0xbe,
  0x4c, 0x93, 0x4f, 0x3e, 0x80, 0x75, 0xc8, 0xbd, 0x89, 0x9d, 0x88, 0xbe,
  0x24, 0xa2, 0x9d, 0xbd, 0xd0, 0x90, 0xcf, 0xbd, 0x7d, 0x9d, 0x42, 0xbe,
  0x95, 0xa3, 0x51, 0xbe, 0xd7, 0x3d, 0x6d, 0xbd, 0xc1, 0xc2, 0x81, 0xbe,
  0xc1, 0x7c, 0x79, 0xbc, 0x6f, 0x1b, 0x0a, 0x3e, 0x76, 0x96, 0x4d, 0xbe,
  0x63, 0x92, 0x7e, 0xbd, 0xee, 0xbd, 0x8b, 0xbc, 0x59, 0xf6, 0x95, 0x3d,
  0x35, 0xe5, 0x12, 0xbe, 0x0a, 0x7a, 0x84, 0xbe, 0xb0, 0xdf, 0x4a, 0xbd,
  0x19, 0x35, 0x4c, 0xbd, 0xb3, 0x1c, 0xa1, 0x3c, 0x78, 0xe0, 0x24, 0xbe,
  0xb1, 0x7b, 0xb4, 0xbe, 0x24, 0xaf, 0x9b, 0xbe, 0xf8, 0x38, 0xf0, 0xbc,
  0xac, 0xea, 0xa6, 0xbd, 0x53, 0xe9, 0xa1, 0xbd, 0x9a, 0x28, 0xae, 0x3d,
  0x8c, 0x25, 0xc2, 0x3d, 0x83, 0xe1, 0x86, 0xbe, 0xe7, 0x6d, 0x0b, 0x3e,
  0x8b, 0x25, 0xbc, 0x3d, 0x4e, 0x7e, 0xda, 0xbb, 0x40, 0x7e, 0x1b, 0xbe,
  0xb4, 0x9f, 0x44, 0x3c, 0xaf, 0xeb, 0xba, 0x3c, 0xfc, 0x6d, 0x61, 0xbe,
  0x9f, 0x0e, 0x2a, 0xbd, 0x99, 0x95, 0x06, 0xbd, 0xea, 0x2b, 0xe9, 0xbc,
  0x08, 0x92, 0xc9, 0x3e, 0x33, 0x4c, 0xec, 0x3d, 0x0c, 0x4a, 0x9a, 0xbe,
  0x1a, 0x30, 0x24, 0x3d, 0x36, 0x60, 0x65, 0x3e, 0x90, 0x62, 0x41, 0xbe,
  0xd0, 0x93, 0xaa, 0xbe, 0xbb, 0x0e, 0xce, 0xbd, 0x7c, 0xbe, 0xdc, 0xbe,
  0x10, 0x15, 0x8b, 0x3e, 0x5c, 0xe7, 0xbb, 0x3e, 0xf9, 0x23, 0xb6, 0xbe,
  0x48, 0xe3, 0x5d, 0x3e, 0xb3, 0x57, 0x02, 0xbe, 0x00, 0x20, 0x8f, 0xbd,
  0x83, 0xac, 0x75, 0xbd, 0x4f, 0xf7, 0xee, 0xbd, 0xe1, 0xd3, 0x79, 0x3d,
  0x9a, 0x63, 0xd2, 0xbd, 0x81, 0x2d, 0x48, 0xbd, 0x04, 0x80, 0x24, 0x3e,
  0x57, 0xf3, 0x98, 0x3c, 0x7f, 0x80, 0x28, 0xbd, 0xa1, 0x4a, 0xf0, 0x3c,
  0xa4, 0xd4, 0x05, 0xbe, 0x6b, 0x22, 0x56, 0x3d, 0x92, 0x11, 0x11, 0xbe,
  0x18, 0x26, 0xa0, 0x3c, 0x3e, 0x70, 0xb7, 0x3d, 0x66, 0xdd, 0xbb, 0xbd,
  0x12, 0x55, 0x5b, 0x3d, 0x56, 0x26, 0x5e, 0x3d, 0xcc, 0x48, 0x04, 0x3e,
  0xcc, 0xdc, 0xb7, 0x3d, 0x79, 0x22, 0x0b, 0x3c, 0x58, 0x73, 0xdd, 0xbd,
  0x07, 0xb9, 0x66, 0x3c, 0x01, 0x3d, 0x82, 0xbc, 0x9f, 0xc1, 0xde, 0xbc,
  0x94, 0xa7, 0x2a, 0xbe, 0xda, 0x55, 0xb8, 0xbd, 0xb8, 0x0e, 0x72, 0xbd,
  0x83, 0xf7, 0x54, 0x3d, 0xb3, 0x19, 0x9c, 0x3e, 0x67, 0x3c, 0x25, 0x3e,
  0x18, 0x96, 0xa3, 0x3d, 0x3a, 0xb0, 0xf5, 0xba, 0x34, 0x4e, 0x37, 0xbd,
  0xba, 0xbc, 0x8f, 0x3d, 0x83, 0x89, 0x91, 0x3d, 0x91, 0xd3, 0xf0, 0x3d,
  0x35, 0x01, 0x72, 0xbe, 0xb2, 0x63, 0xbe, 0xbc, 0x96, 0xff, 0xa9, 0xbd,
  0x07, 0x28, 0xde, 0x3d, 0x27, 0x42, 0x6a, 0xbe, 0xef, 0xae, 0x78, 0xbe,
  0x17, 0xec, 0xe1, 0x3d, 0xc1, 0xf2, 0xea, 0x3d, 0x96, 0xd8, 0xfa, 0x3d,
  0x1f, 0xbe, 0xb2, 0xbd, 0xa3, 0xb6, 0x02, 0x3e, 0xe2, 0x14, 0xb0, 0xbd,
  0xf5, 0xe8, 0xf9, 0xbb, 0x90, 0xe6, 0xbd, 0xbc, 0xa4, 0x07, 0xdc, 0x3d,
  0xb6, 0x44, 0x10, 0xbe, 0xa1, 0x7b, 0xa7, 0xbd, 0xb1, 0x08, 0x5f, 0x3e,
  0xf9, 0x64, 0xe8, 0x3c, 0x3c, 0x50, 0x86, 0xbe, 0xda, 0x65, 0x0b, 0xbe,
  0x6c, 0xf6, 0xd5, 0xbd, 0x1f, 0x92, 0xe5, 0xbd, 0x5d, 0xe2, 0x8e, 0x3d,
  0xd4, 0xa1, 0xef, 0xbb, 0xdf, 0xe3, 0x25, 0x3d, 0x24, 0x99, 0x0f, 0xbe,
  0x07, 0x2c, 0xe4, 0xbd, 0xac, 0x88, 0x85, 0xbd, 0x36, 0x14, 0x51, 0x3d,
  0x8d, 0x4b, 0x34, 0xbc, 0x51, 0x9b, 0x5d, 0xbe, 0x71, 0x9d, 0xa8, 0x3e,
  0x92, 0x30, 0x23, 0x3e, 0x29, 0x75, 0xe3, 0x3d, 0x9b, 0xba, 0x62, 0xbd,
  0x87, 0x2c, 0xf5, 0xbd, 0x32, 0x6b, 0xac, 0x3d, 0x93, 0xbc, 0x0b, 0xbe,
  0xc5, 0x01, 0xea, 0xbd, 0xd1, 0xb8, 0x95, 0xbd, 0x6e, 0x17, 0x1e, 0x3e,
  0xe4, 0x79, 0xc5, 0x3c, 0x57, 0x14, 0x2f, 0xbe, 0x1e, 0x92, 0x00, 0xbd,
  0x10, 0xdf, 0xd9, 0xbc, 0x73, 0x01, 0xc4, 0x3c, 0x3d, 0xba, 0x04, 0xbe,
  0xd2, 0xdf, 0x66, 0xbe, 0x02, 0x23, 0xb7, 0x3b, 0xc4, 0xdc, 0x11, 0xbe,
  0x0c, 0x4d, 0xca, 0xbc, 0x03, 0xbc, 0xee, 0xbd, 0x50, 0xf0, 0x93, 0xbe,
  0xca, 0x2b, 0x98, 0x3d, 0x08, 0xc4, 0x91, 0x3c, 0xbc, 0x32, 0xc4, 0xbd,
  0x95, 0xa4, 0x0f, 0x3e, 0x60, 0x1d, 0x07, 0x3e, 0x41, 0x8e, 0xfb, 0xbd,
  0x0c, 0xae, 0x7f, 0xbe, 0xca, 0x51, 0x2a, 0xbe, 0x56, 0x79, 0x04, 0xbe,
  0xe9, 0xf6, 0x3e, 0x3e, 0x42, 0x81, 0x0f, 0x3c, 0xb4, 0xaf, 0x4f, 0xbe,
  0xa7, 0x59, 0x96, 0xbe, 0xae, 0x3b, 0x2f, 0x3e, 0x6f, 0x22, 0xec, 0x3d,
  0xbf, 0xcb, 0x27, 0xbd, 0x85, 0x8d, 0x3b, 0xbe, 0x94, 0x85, 0x2c, 0xbc,
  0x6c, 0xab, 0x2a, 0x3e, 0xa4, 0xa2, 0x3c, 0xbe, 0xa7, 0xbc, 0x40, 0x3e,
  0x02, 0xc9, 0x1a, 0x3d, 0x83, 0xd6, 0xdc, 0x3a, 0x1c, 0xe1, 0x18, 0xbe,
  0x8a, 0x0f, 0x05, 0x3d, 0x65, 0xf0, 0x03, 0x3d, 0xf5, 0x79, 0x91, 0xbe,
  0x51, 0x48, 0x76, 0x3e, 0x5a, 0x27, 0x85, 0xbc, 0x30, 0x0e, 0x84, 0x3d,
  0xb2, 0x6b, 0x5f, 0xbe, 0x09, 0x16, 0x7a, 0xbe, 0x3a, 0x00, 0x4b, 0xbe,
  0x4e, 0xab, 0x94, 0x3e, 0x1f, 0x09, 0xdc, 0x3d, 0xf6, 0x3a, 0x5c, 0x3e,
  0xee, 0x47, 0x02, 0xbe, 0xa2, 0xfe, 0x83, 0xbd, 0x71, 0x55, 0x8b, 0xbd,
  0x3b, 0x9a, 0x52, 0x3e, 0x06, 0xc7, 0x89, 0x3d, 0x83, 0x01, 0xcc, 0x3d,
  0x6b, 0xd9, 0xe2, 0x3c, 0xeb, 0xd9, 0x66, 0x3c, 0x35, 0xf3, 0x01, 0xbe,
  0x85, 0x37, 0x14, 0xbe, 0xe4, 0x4d, 0x97, 0xbd, 0xd6, 0x0d, 0x16, 0xbe,
  0xf9, 0x3f, 0x46, 0xbe, 0x6a, 0x0f, 0x24, 0x3e, 0xa5, 0xe3, 0x68, 0x3d,
  0x44, 0xc9, 0x50, 0x3c, 0x1d, 0xf9, 0x91, 0xbb, 0x93, 0x71, 0xa4, 0xbd,
  0x58, 0x74, 0xa8, 0x3d, 0xb6, 0x6b, 0x76, 0xbd, 0xfd, 0x1f, 0xeb, 0xbd,
  0x72, 0x0a, 0x8d, 0xbe, 0x3b, 0x26, 0xc6, 0x3d, 0x12, 0xcb, 0x30, 0xbe,
  0xa5, 0x0e, 0x25, 0x3d, 0xca, 0xff, 0xbd, 0xbb, 0x68, 0x2c, 0x0f, 0x3e,
  0xbd, 0xbc, 0xc0, 0xbe, 0x21, 0x83, 0x6c, 0xbe, 0x62, 0xbd, 0x65, 0xbd,
  0x9a, 0xfd, 0x97, 0x3c, 0x14, 0x93, 0x72, 0x3d, 0x31, 0x17, 0x62, 0x3e,
  0xb5, 0x83, 0xae, 0xbd, 0xe5, 0xba, 0x29, 0xba, 0x26, 0x11, 0xd0, 0x3d,
  0xcc, 0x46, 0xc6, 0xbd, 0x2d, 0x4e, 0xeb, 0xbd, 0xac, 0x10, 0xb5, 0xbd,
  0xb5, 0x57, 0x85, 0xbc, 0x39, 0xb7, 0x9c, 0x3c, 0xf7, 0x58, 0x2c, 0xbd,
  0xf4, 0x49, 0x16, 0xbe, 0x83, 0x94, 0x71, 0xbe, 0xc8, 0x1a, 0xfa, 0x3c,
  0xd7, 0xe8, 0xa7, 0x3d, 0x6a, 0x7b, 0xf7, 0x3d, 0x91, 0xd7, 0x05, 0x3e,
  0x81, 0x6f, 0x91, 0xbe, 0x63, 0x08, 0xae, 0xbe, 0xf5, 0xdf, 0x49, 0xbd,
  0xfb, 0x95, 0x22, 0x3e, 0xf7, 0x55, 0xd5, 0xbc, 0xae, 0x9b, 0x48, 0x3d,
  0xad, 0x46, 0x04, 0x3e, 0x1a, 0x1f, 0x18, 0x3c, 0xe4, 0x0b, 0x78, 0xbd,
  0xcc, 0x0e, 0x13, 0xbd, 0x73, 0x1a, 0x07, 0x3d, 0x83, 0x91, 0xaf, 0xbe,
  0xd8, 0xa8, 0x75, 0xbd, 0x3d, 0x81, 0x2a, 0x3e, 0x1e, 0xa0, 0x90, 0x3d,
  0x58, 0x69, 0x2d, 0xbe, 0x9d, 0x46, 0x22, 0xbe, 0x35, 0x5a, 0xf8, 0xbd,
  0x20, 0xb2, 0x12, 0xbd, 0x4d, 0xec, 0xe1, 0x3d, 0x01, 0x1e, 0x3c, 0xbd,
  0x74, 0x1e, 0x98, 0x3d, 0x39, 0x4f, 0x10, 0xbe, 0xcf, 0x83, 0x88, 0xbe,
  0xb5, 0x63, 0x45, 0xbe, 0x2b, 0x1c, 0x20, 0x3e, 0xd1, 0xe4, 0x18, 0x3e,
  0x9d, 0x97, 0x69, 0xbe, 0x0e, 0x86, 0x1c, 0xbe, 0x57, 0xaa, 0x44, 0xbd,
  0xda, 0x72, 0xa3, 0xbd, 0x18, 0x7e, 0x56, 0x3c, 0x55, 0x3d, 0xa6, 0x3b,
  0xf2, 0x5d, 0x10, 0xbe, 0xe1, 0x33, 0x45, 0xbe, 0x41, 0x92, 0x23, 0x3f,
  0xa6, 0x03, 0xc1, 0x3d, 0x30, 0x45, 0xbb, 0xbe, 0xe2, 0x6a, 0x35, 0xbd,
  0x80, 0x3e, 0x17, 0x3e, 0x41, 0x73, 0xb8, 0x3d, 0x5e, 0xe6, 0x80, 0xbe,
  0x69, 0x3b, 0x42, 0xbe, 0x5f, 0xb3, 0x37, 0xbd, 0xc7, 0x0b, 0xc4, 0x3e,
  0xf1, 0x85, 0xdc, 0x3e, 0x95, 0x3b, 0x9b, 0xbe, 0x40, 0x63, 0xc6, 0x3e,
  0x22, 0x24, 0xd4, 0xbd, 0x10, 0x0a, 0x14, 0x3e, 0x5f, 0x56, 0xa6, 0xbd,
  0x0c, 0xd6, 0xe3, 0x3c, 0xa6, 0xb9, 0xd1, 0xbc, 0x59, 0xd7, 0xcc, 0xbd,
  0xe7, 0x21, 0xe3, 0xbd, 0xa1, 0x27, 0xca, 0xbd, 0x7b, 0xa7, 0xce, 0x3c,
  0x07, 0x61, 0x3a, 0xbe, 0x09, 0x3c, 0xb5, 0xbe, 0xe4, 0xe6, 0xda, 0xbd,
  0xed, 0xd7, 0x7a, 0xbd, 0x4c, 0xfc, 0x13, 0xbe, 0x9e, 0xb8, 0x17, 0x3e,
  0xbc, 0xd6, 0xc5, 0xbc, 0x09, 0x0b, 0x9a, 0x3e, 0x94, 0x65, 0x85, 0xbb,
  0xed, 0x43, 0xaa, 0x3d, 0x04, 0x0b, 0x6f, 0xbc, 0x04, 0x7c, 0x4b, 0xbc,
  0xac, 0xac, 0x3d, 0xbe, 0x77, 0xd9, 0x2b, 0xbe, 0x62, 0xca, 0x1d, 0x3d,
  0xee, 0xeb, 0x84, 0xbe, 0xba, 0xcb, 0xd6, 0xbd, 0x54, 0xfd, 0xf1, 0xbd,
  0x6c, 0x5e, 0x12, 0xbe, 0xb1, 0xd6, 0x50, 0xbd, 0x84, 0xda, 0x0c, 0x3e,
  0x06, 0x34, 0x92, 0x3e, 0x8d, 0xfc, 0x0c, 0xbe, 0xd1, 0x8e, 0x56, 0x3e,
  0x67, 0x4b, 0x8f, 0x3d, 0x2d, 0xb7, 0xc4, 0xbd, 0x30, 0x7c, 0xdb, 0xbd,
  0xe5, 0xc6, 0xe1, 0x3c, 0x36, 0x56, 0xf6, 0xbd, 0x52, 0x69, 0xe7, 0x3d,
  0xef, 0x82, 0xf1, 0x3c, 0xc9, 0x2c, 0xc2, 0xbe, 0xc2, 0x65, 0x5b, 0xbe,
  0x1e, 0x38, 0xcf, 0xbe, 0x12, 0xed, 0xb4, 0xbd, 0xf9, 0x4b, 0xc6, 0x3d,
  0x56, 0xe2, 0xf2, 0xbd, 0x37, 0xe3, 0xbb, 0xbc, 0xbd, 0xf2, 0x33, 0xbd,
  0x18, 0x18, 0x41, 0xbe, 0x54, 0x57, 0x7d, 0xbd, 0x3a, 0xd2, 0x0a, 0xbe,
  0x87, 0x07, 0xbd, 0x3d, 0xac, 0x34, 0x2c, 0x3d, 0xda, 0x57, 0xa1, 0xbd,
  0x8e, 0x26, 0x7e, 0xbd, 0xd5, 0xe5, 0xa2, 0x3d, 0xb3, 0xda, 0x80, 0x3d,
  0xfa, 0xac, 0x02, 0xbe, 0x1a, 0xc9, 0x9e, 0xbe, 0x72, 0x5f, 0x61, 0xbe,
  0x38, 0xfd, 0xa9, 0xbd, 0x04, 0x26, 0xb3, 0x3d, 0x5d, 0x10, 0x51, 0xbd,
  0x4e, 0x8b, 0x90, 0x3d, 0x02, 0xd7, 0x4a, 0x3e, 0x96, 0x47, 0xdd, 0x3d,
  0xb1, 0xd8, 0xdd, 0xbd, 0xeb, 0x24, 0x72, 0x3d, 0xe0, 0x24, 0x16, 0x3e,
  0x76, 0x63, 0x06, 0xbd, 0x2d, 0x95, 0x6e, 0x3e, 0xdc, 0x8e, 0x43, 0x3d,
  0xea, 0x0a, 0x29, 0xb9, 0xe8, 0xdd, 0x23, 0xbd, 0xb8, 0x6b, 0x45, 0xbe,
  0xd8, 0x13, 0x18, 0x3d, 0x14, 0x12, 0xea, 0x3d, 0x19, 0xf3, 0x3c, 0x3e,
  0xd2, 0x6b, 0x69, 0xbd, 0x9b, 0x59, 0x43, 0x3e, 0x9e, 0xbf, 0x8e, 0x3e,
  0xaa, 0x55, 0xf5, 0x3c, 0xd9, 0x6b, 0xef, 0xbd, 0xf3, 0x60, 0x05, 0xbd,
  0x15, 0x2e, 0x86, 0xbc, 0x12, 0xc6, 0x89, 0xbd, 0x5a, 0x99, 0x92, 0xbe,
  0xe9, 0xcf, 0x1a, 0xbe, 0xb9, 0x19, 0x8f, 0xbe, 0x17, 0x6d, 0x73, 0x3d,
  0xf2, 0x07, 0xe7, 0x3d, 0xd7, 0xde, 0x5a, 0xbe, 0x3a, 0x85, 0x1d, 0x3d,
  0xcf, 0x23, 0xd1, 0xbd, 0xa6, 0x46, 0xa7, 0xbd, 0xa4, 0x24, 0xfb, 0x3d,
  0x20, 0x7d, 0x64, 0x3e, 0x74, 0x3a, 0x7c, 0xbe, 0xaa, 0x9e, 0x21, 0x3e,
  0xb9, 0x8c, 0xc7, 0x3e, 0xfc, 0xef, 0x12, 0x3e, 0x72, 0x6b, 0x4b, 0xbe,
  0x55, 0x50, 0xfd, 0xbd, 0xe3, 0xf5, 0x3b, 0xbe, 0x5d, 0xc0, 0x85, 0xbe,
  0x8c, 0x64, 0x89, 0xbe, 0xe7, 0x6e, 0x7f, 0xbd, 0x6e, 0xbd, 0xf8, 0xbe,
  0x00, 0x7b, 0xba, 0xbd, 0xdc, 0x5f, 0x8a, 0xbe, 0x2c, 0x70, 0xc2, 0xbe,
  0x41, 0xc1, 0xf1, 0xbd, 0xaf, 0x12, 0x2f, 0xbe, 0x67, 0x51, 0xcd, 0xbd,
  0xd0, 0xbf, 0x26, 0x3e, 0x51, 0x2a, 0x55, 0xbe, 0x57, 0xc7, 0x98, 0xbd,
  0x8d, 0x81, 0xf7, 0xbd, 0x4f, 0x3c, 0x29, 0x3e, 0x16, 0x12, 0x47, 0xbe,
  0x3c, 0x6d, 0x0a, 0xbe, 0xab, 0xcf, 0x32, 0xbe, 0x95, 0xfc, 0xeb, 0xbb,
  0x93, 0x4b, 0xf4, 0x3d, 0x3a, 0x83, 0x44, 0x3d, 0x06, 0x06, 0x4f, 0xbe,
  0x1a, 0x30, 0x13, 0x3c, 0x6d, 0x6e, 0x25, 0xbd, 0x88, 0xa3, 0xe2, 0xbe,
  0xc2, 0x04, 0x07, 0x3d, 0x66, 0x93, 0xa0, 0xbe, 0x59, 0x1e, 0xda, 0xbd,
  0xc2, 0xed, 0xb0, 0xbd, 0xde, 0x09, 0xdd, 0xbd, 0x07, 0x7b, 0x94, 0x3e,
  0xa0, 0x09, 0x95, 0xbd, 0x41, 0x53, 0x07, 0xbe, 0x2e, 0x36, 0x7e, 0xbd,
  0xc9, 0xc6, 0x6b, 0xbd, 0xb3, 0x60, 0x0c, 0x3e, 0x4f, 0xe9, 0xfa, 0x3d,
  0x4d, 0x3a, 0xad, 0xbe, 0x60, 0xf4, 0xa6, 0x3d, 0x8d, 0x0d, 0x08, 0xbe,
  0x1a, 0xf3, 0xb2, 0x39, 0xd7, 0xda, 0xa0, 0x3c, 0xb0, 0xf5, 0x7c, 0xbe,
  0xa6, 0x2a, 0x67, 0xbe, 0x3d, 0xcc, 0x6b, 0xbd, 0x0f, 0x31, 0xfd, 0xba,
  0xd9, 0x09, 0xca, 0x3d, 0x76, 0x11, 0x55, 0xbe, 0xa9, 0xb1, 0x03, 0xbe,
  0x48, 0x34, 0x0a, 0xbd, 0x03, 0x5a, 0x05, 0x3d, 0xda, 0xf1, 0x42, 0x3d,
  0xc8, 0x61, 0x81, 0x3d, 0x8f, 0x63, 0x13, 0xbe, 0xf4, 0x87, 0x25, 0xbd,
  0xfa, 0x37, 0x9c, 0xbd, 0x39, 0xeb, 0xc2, 0x3d, 0xf3, 0x6d, 0x73, 0x3c,
  0xaf, 0x09, 0xb4, 0x3c, 0x70, 0xec, 0xb0, 0xbe, 0xe7, 0x1b, 0x63, 0x3d,
  0x45, 0x08, 0xd5, 0xbc, 0x3d, 0x82, 0x0d, 0xbd, 0xc4, 0xc8, 0x91, 0xbd,
  0x16, 0xf1, 0x94, 0xbe, 0x3c, 0x67, 0xf3, 0xbc, 0x9d, 0x6c, 0x30, 0xbe,
  0x95, 0xfb, 0x99, 0xbd, 0xee, 0x24, 0xb0, 0x3d, 0x35, 0xf7, 0x8d, 0xbe,
  0x9d, 0x0b, 0x2f, 0xbe, 0xa4, 0x3a, 0x08, 0xbe, 0xfa, 0x67, 0xf1, 0xbd,
  0xbb, 0xf2, 0xbe, 0x3d, 0x7d, 0x87, 0x36, 0x3e, 0x43, 0x1c, 0xfc, 0xbe,
  0x60, 0x08, 0xfd, 0x3c, 0xf5, 0xe3, 0x9f, 0xbd, 0xef, 0x33, 0xe6, 0xbd,
  0x29, 0x47, 0xdd, 0xbd, 0x8d, 0x94, 0xf8, 0xbd, 0x77, 0xcb, 0x1e, 0xbe,
  0x17, 0x42, 0x9e, 0xbe, 0x4c, 0x75, 0x57, 0xbd, 0x30, 0xcd, 0x9e, 0xbd,
  0x9b, 0x84, 0xb8, 0xbd, 0x33, 0xc0, 0xcd, 0xbe, 0xd2, 0x19, 0x58, 0xbe,
  0xa6, 0x20, 0x80, 0xbe, 0xe4, 0xa6, 0x4a, 0xbd, 0x13, 0xd4, 0x1d, 0x3e,
  0xb3, 0x82, 0x96, 0xbe, 0x1b, 0xc7, 0xa5, 0xbd, 0x3a, 0xea, 0xe6, 0xbd,
  0xcf, 0x48, 0x3f, 0x3e, 0xf8, 0x5e, 0x5a, 0xbe, 0x03, 0x75, 0x73, 0xbe,
  0x1d, 0xa6, 0xda, 0xbd, 0xfb, 0xc4, 0x3b, 0xbe, 0xac, 0x1c, 0xec, 0x3d,
  0x37, 0xca, 0xdf, 0x3c, 0x76, 0x95, 0xef, 0xbd, 0xc9, 0x8c, 0x97, 0xbd,
  0xb1, 0x39, 0xe8, 0xbc, 0xe8, 0xff, 0x18, 0xbe, 0x03, 0xe4, 0x19, 0xbd,
  0xbc, 0xcd, 0x49, 0xbe, 0x11, 0x85, 0x5e, 0x3f, 0x2e, 0x60, 0x18, 0xbd,
  0x58, 0x1a, 0x99, 0xbe, 0x3b, 0xc9, 0x7a, 0x3e, 0x44, 0x8b, 0x3d, 0x3e,
  0x9f, 0x13, 0x15, 0x3e, 0x12, 0x4c, 0xb0, 0xbd, 0xe5, 0x9a, 0xc2, 0xbe,
  0xa8, 0xaa, 0xa9, 0x3c, 0x63, 0xac, 0xd7, 0x3e, 0x05, 0xde, 0x85, 0x3e,
  0x79, 0x4f, 0xce, 0xbd, 0xb3, 0x79, 0x11, 0x3f, 0x3d, 0x8c, 0xa7, 0x3e,
  0x16, 0xb8, 0xf6, 0x3d, 0x42, 0xe2, 0xbe, 0xbd, 0x24, 0xfd, 0x53, 0xbe,
  0x38, 0x41, 0x86, 0x3c, 0x3d, 0xc3, 0x48, 0xbe, 0x49, 0xe0, 0x6d, 0xbe,
  0xe9, 0x84, 0x14, 0x3d, 0x73, 0x92, 0xe1, 0xbd, 0x25, 0xd7, 0x3e, 0xbe,
  0x9c, 0x70, 0xc5, 0xbe, 0xea, 0x7c, 0x59, 0xbc, 0x80, 0x29, 0x61, 0x3d,
  0xfc, 0x6a, 0xce, 0xbe, 0x31, 0xe2, 0xa7, 0x3d, 0x32, 0xea, 0x59, 0xbd,
  0x0e, 0xe2, 0xb3, 0x3e, 0x8e, 0x64, 0x9b, 0x3d, 0x50, 0x36, 0xb8, 0x3d,
  0xe8, 0xd1, 0x32, 0xbe, 0x70, 0x69, 0x95, 0x3d, 0xad, 0xcb, 0x8f, 0xbd,
  0x1d, 0x28, 0x84, 0x3d, 0x42, 0x40, 0xf6, 0x3d, 0x82, 0x8b, 0xa2, 0xbe,
  0x68, 0x19, 0xc7, 0xbd, 0x08, 0xe6, 0x06, 0xbf, 0x26, 0xce, 0x16, 0xbd,
  0x87, 0xda, 0xa3, 0x3c, 0xe0, 0x97, 0x95, 0x3d, 0x34, 0x30, 0x10, 0x3e,
  0x30, 0xba, 0x50, 0xbe, 0x8a, 0x3a, 0x3f, 0x3e, 0x9b, 0x63, 0x68, 0xbc,
  0x0a, 0xef, 0x6b, 0x3d, 0xe0, 0xb8, 0xe0, 0xbd, 0x4e, 0x8a, 0x4c, 0x3d,
  0xa3, 0xdf, 0x06, 0x3e, 0xb6, 0x61, 0x88, 0x3e, 0x41, 0x93, 0x0c, 0x3d,
  0x4c, 0x28, 0x19, 0xbe, 0x21, 0xa2, 0x5f, 0xbe, 0xb7, 0x46, 0x36, 0xbe,
  0x81, 0x15, 0x20, 0xbe, 0xf3, 0x4e, 0x1c, 0xbe, 0xd8, 0x6f, 0xde, 0x3d,
  0x56, 0x0a, 0x91, 0x3d, 0x6d, 0x87, 0x6c, 0xbe, 0xb0, 0x01, 0xc7, 0xbd,
  0x4e, 0x12, 0x9d, 0x3d, 0x13, 0x7a, 0x72, 0xbe, 0x06, 0x20, 0x03, 0xbe,
  0x4f, 0x1c, 0xbc, 0x3c, 0x2f, 0xf6, 0x02, 0xbe, 0x9a, 0x08, 0x79, 0x3e,
  0x29, 0x61, 0xe3, 0x3c, 0xa1, 0xdc, 0x0e, 0xbe, 0x8f, 0x1d, 0x8a, 0xbd,
  0x27, 0x53, 0x9e, 0xbe, 0xb3, 0xb6, 0xc0, 0x3c, 0x59, 0x97, 0x24, 0xbd,
  0x69, 0xfe, 0xa4, 0x3d, 0x10, 0xf0, 0x37, 0xbe, 0xc2, 0xde, 0x49, 0x3e,
  0x18, 0x2b, 0x82, 0x3e, 0x75, 0xb3, 0x6d, 0x3d, 0x7c, 0x1d, 0x4f, 0xbe,
  0x1c, 0xc2, 0xc9, 0xbd, 0x8a, 0x3a, 0x5d, 0x3d, 0x67, 0x7b, 0x41, 0xbe,
  0x07, 0x44, 0x90, 0x3e, 0x70, 0xa7, 0x0e, 0xbe, 0x0b, 0x69, 0x86, 0x3c,
  0xc8, 0x42, 0x93, 0xbd, 0xc6, 0xc2, 0x1f, 0xbe, 0x02, 0x89, 0xba, 0x3c,
  0x84, 0x98, 0x69, 0x3e, 0x57, 0xcf, 0x46, 0x3e, 0xc7, 0x30, 0xce, 0xbd,
  0x1d, 0x0d, 0xcb, 0x3e, 0xb5, 0x7f, 0xa9, 0x3e, 0xb7, 0xb3, 0xf6, 0x3d,
  0xbb, 0x53, 0x80, 0xbe, 0x5c, 0x10, 0x04, 0xbd, 0xdb, 0xef, 0xb7, 0x3c,
  0x16, 0x15, 0xdb, 0xbd, 0x35, 0x7a, 0x67, 0xbd, 0x55, 0x8f, 0x18, 0xbe,
  0xd3, 0xb1, 0x22, 0x3d, 0x4e, 0x7f, 0xb4, 0xbc, 0x34, 0x74, 0x1b, 0x3d,
  0x41, 0xf2, 0x68, 0xbd, 0xef, 0xf8, 0x3e, 0x3d, 0x30, 0x71, 0xc0, 0x3d,
  0xee, 0xb3, 0x0d, 0xbe, 0xad, 0x7e, 0x55, 0x3e, 0x8d, 0x4f, 0x84, 0x3e,
  0x86, 0x8b, 0xdd, 0x3c, 0x8a, 0xf0, 0xe4, 0xbd, 0x40, 0x4b, 0x41, 0x3e,
  0x1f, 0x6b, 0xed, 0x3b, 0x34, 0xfb, 0x24, 0xbe, 0x4e, 0x0c, 0x61, 0x3e,
  0x54, 0x6f, 0x60, 0x3e, 0x05, 0x74, 0xc8, 0x3c, 0xfc, 0x96, 0xae, 0xbd,
  0xea, 0x03, 0x7f, 0xbe, 0x95, 0xa4, 0x2f, 0xbe, 0x82, 0x51, 0x82, 0x3d,
  0xf3, 0x72, 0x71, 0x3e, 0x8d, 0x3b, 0xad, 0x3d, 0xaa, 0xd6, 0x80, 0x3e,
  0xdf, 0x44, 0x25, 0xbe, 0x6c, 0x81, 0x98, 0xbe, 0x5e, 0xbd, 0x7b, 0xbd,
  0x14, 0x54, 0xb0, 0xbb, 0xc4, 0x5e, 0x2e, 0x3d, 0x48, 0x4a, 0x32, 0xbe,
  0xcb, 0x57, 0x04, 0x3e, 0x7c, 0xba, 0x22, 0xbc, 0xb0, 0xf8, 0x1d, 0xbe,
  0xb2, 0x6a, 0x91, 0xbd, 0xbc, 0x33, 0xe4, 0xbd, 0xd6, 0xec, 0xda, 0xbd,
  0x94, 0xeb, 0x12, 0x3e, 0x11, 0xac, 0xcc, 0xbc, 0x68, 0xc1, 0x8c, 0x3d,
  0xf1, 0x40, 0xe1, 0xbc, 0x79, 0x6d, 0x7f, 0x3e, 0xde, 0x47, 0x20, 0xbe,
  0x3d, 0x4e, 0x35, 0x3d, 0x09, 0x03, 0xef, 0xbd, 0xd0, 0x2a, 0x65, 0x3d,
  0xfe, 0x2f, 0x8a, 0x3c, 0xa8, 0xf6, 0x3b, 0xbd, 0xa4, 0xd6, 0x5e, 0x3d,
  0x60, 0xa6, 0xc4, 0xbd, 0xa7, 0x8c, 0xe7, 0xbd, 0x1c, 0xaf, 0x15, 0x3c,
  0x1c, 0x10, 0x3b, 0x3d, 0xa9, 0x5a, 0x84, 0x3d, 0x43, 0x6a, 0x30, 0xbe,
  0xa0, 0x69, 0xdb, 0x3b, 0x94, 0x4b, 0x49, 0x3b, 0x05, 0x8e, 0xa5, 0x3e,
  0x7a, 0xb1, 0x56, 0xbd, 0x14, 0xa5, 0xa8, 0x3c, 0xbe, 0xb8, 0x6f, 0xbe,
  0xb0, 0xcc, 0xab, 0x3d, 0x02, 0x9a, 0xb6, 0x3b, 0xc4, 0x6e, 0xf0, 0x3d,
  0x02, 0xc2, 0x42, 0x3a, 0xd1, 0x33, 0x77, 0x3d, 0x7c, 0x3e, 0xbd, 0x3d,
  0x14, 0x94, 0x27, 0x3e, 0x4a, 0xb1, 0x95, 0x3d, 0x9b, 0x60, 0x02, 0x3d,
  0x89, 0x54, 0x51, 0x3e, 0x20, 0x3f, 0xa5, 0x3b, 0x1b, 0xd9, 0x8a, 0xbc,
  0x48, 0x35, 0x85, 0x3c, 0x8c, 0x0c, 0x09, 0xbe, 0x0f, 0x61, 0x86, 0xbb,
  0xde, 0x76, 0x12, 0xbc, 0x82, 0xd8, 0x29, 0x3e, 0x2d, 0x1c, 0x45, 0xbe,
  0x0b, 0xf8, 0x06, 0x3e, 0x18, 0x28, 0x9f, 0x3d, 0x58, 0x2b, 0x06, 0x3d,
  0x0c, 0x19, 0xf7, 0xbd, 0x51, 0x7c, 0xd6, 0xbc, 0x80, 0x19, 0x94, 0xbd,
  0x78, 0x93, 0x2a, 0x3c, 0x60, 0xec, 0x9c, 0x3e, 0x5e, 0x3a, 0x69, 0xbe,
  0xaf, 0xcd, 0x6c, 0x3d, 0x99, 0x61, 0xc5, 0xbe, 0xee, 0x0e, 0x82, 0xbe,
  0x3c, 0xac, 0xbd, 0xbd, 0x5d, 0xbc, 0x0f, 0x3e, 0x8b, 0x57, 0x3e, 0x3d,
  0x92, 0xf0, 0x40, 0xbc, 0xc2, 0x90, 0x69, 0x3d, 0x0b, 0x91, 0x91, 0x3d,
  0xdf, 0xa1, 0xd6, 0xbe, 0xf4, 0x16, 0x38, 0x3d, 0x9e, 0x61, 0x66, 0xbd,
  0xf9, 0x3e, 0xba, 0xbd, 0xe2, 0x84, 0xb5, 0xbd, 0x2c, 0xd4, 0x8a, 0x3d,
  0xfc, 0xaf, 0x13, 0xbe, 0xf9, 0x48, 0x20, 0x3e, 0x77, 0x78, 0x6f, 0xbe,
  0xd9, 0x71, 0x9f, 0xbe, 0x36, 0xb2, 0x0a, 0xbe, 0xda, 0xac, 0xd3, 0xbd,
  0x3c, 0x16, 0x15, 0x3d, 0xc8, 0xb6, 0x71, 0x3d, 0xfb, 0xfb, 0xbc, 0xbe,
  0x40, 0x71, 0x0a, 0xbd, 0x24, 0x57, 0x0b, 0xbe, 0x8d, 0xa5, 0xff, 0xbd,
  0x95, 0xad, 0x42, 0x3e, 0xed, 0x90, 0xb7, 0xbd, 0xdd, 0x9d, 0xc6, 0xbd,
  0x76, 0xc8, 0xb4, 0x3d, 0x26, 0x3e, 0x1c, 0x3d, 0x91, 0x44, 0xc1, 0xbc,
  0x09, 0xdc, 0x83, 0x3c, 0x9f, 0xd9, 0xa2, 0xbe, 0xdd, 0x21, 0x04, 0xbd,
  0xd5, 0xb3, 0xd4, 0x3d, 0x3f, 0xe4, 0x97, 0x3c, 0xcb, 0xae, 0x55, 0xbd,
  0xaa, 0x0a, 0x96, 0xbd, 0xf5, 0x88, 0x27, 0xbe, 0xdd, 0xa4, 0x3a, 0xbe,
  0x02, 0xef, 0x47, 0xbe, 0xaf, 0x98, 0x53, 0xbe, 0x96, 0xd3, 0x48, 0xbe,
  0x68, 0xd2, 0x57, 0xbe, 0xdc, 0x43, 0xef, 0xbd, 0x0d, 0xb1, 0x65, 0xbd,
  0x4c, 0x81, 0xd8, 0x3d, 0x99, 0xc0, 0x9b, 0x3d, 0x0a, 0x1a, 0xe0, 0xbd,
  0xd1, 0xd8, 0x4d, 0xbd, 0x1f, 0xf6, 0x3a, 0x3c, 0x94, 0x61, 0x3c, 0xbd,
  0x59, 0xf1, 0xe1, 0xbd, 0x14, 0x4f, 0x91, 0x3e, 0x60, 0x9a, 0x58, 0xbe,
  0x18, 0x78, 0x73, 0xbe, 0x4f, 0x45, 0x24, 0xbe, 0x33, 0x9b, 0x03, 0xbe,
  0xc4, 0xa7, 0x13, 0x3e, 0xb8, 0xf8, 0x34, 0x3e, 0x02, 0x18, 0xca, 0x3d,
  0x4d, 0x6f, 0x17, 0xbc, 0x5c, 0x65, 0x73, 0xbd, 0x77, 0xf2, 0xbd, 0xbd,
  0xd5, 0xce, 0x22, 0xbe, 0xb0, 0x5c, 0x9f, 0xbe, 0x1d, 0xbd, 0x12, 0x3e,
  0x0c, 0xc4, 0x01, 0xbe, 0x42, 0xf8, 0xe9, 0xbd, 0xb1, 0x43, 0xad, 0x3e,
  0x88, 0xc4, 0xa1, 0x3d, 0x28, 0xc2, 0x18, 0xbe, 0x62, 0x29, 0xb5, 0x3c,
  0xc4, 0xb7, 0x61, 0xbc, 0x05, 0x4d, 0x9d, 0xbd, 0xff, 0x8a, 0x2e, 0xbe,
  0xab, 0x69, 0xc2, 0x3c, 0x9c, 0x18, 0xff, 0x3d, 0xa1, 0x2f, 0x6f, 0xbd,
  0x74, 0xe2, 0xaf, 0x3d, 0x88, 0xa9, 0x6f, 0xbe, 0xf0, 0xd5, 0x56, 0xbe,
  0x63, 0x36, 0x5b, 0xbe, 0x48, 0x80, 0x6d, 0x3d, 0xae, 0x06, 0x0a, 0xbe,
  0x27, 0xd8, 0x0d, 0xbe, 0x89, 0x12, 0x3c, 0xbe, 0xb0, 0xec, 0x88, 0xbe,
  0x63, 0x4e, 0x26, 0x3d, 0x2d, 0xae, 0x43, 0x3e, 0xae, 0xb0, 0x0a, 0x3e,
  0xf5, 0x3f, 0x0b, 0x3c, 0x3a, 0xe4, 0x3e, 0x3c, 0x6a, 0x94, 0x55, 0x3d,
  0x2b, 0xe7, 0xa6, 0xbc, 0xc6, 0x91, 0x26, 0x3e, 0xf1, 0xf2, 0x7e, 0xbe,
  0x7e, 0x33, 0x50, 0xbd, 0xf4, 0xcb, 0xe2, 0xbd, 0x81, 0x91, 0x02, 0xbe,
  0x1c, 0x22, 0x48, 0xbe, 0xac, 0x09, 0xf2, 0x3c, 0x99, 0x5e, 0x2b, 0x3d,
  0x5c, 0x46, 0x1f, 0xbe, 0x28, 0x82, 0x14, 0x3e, 0xbb, 0x7f, 0x14, 0xbe,
  0x94, 0x47, 0x21, 0x3e, 0xef, 0xa0, 0x11, 0x3d, 0xdd, 0x79, 0x76, 0x3d,
  0xd6, 0x95, 0x1c, 0xbe, 0x5c, 0x2e, 0x8d, 0x3d, 0x62, 0xa1, 0x4e, 0x3e,
  0xe8, 0x1f, 0x35, 0xbe, 0x8d, 0x70, 0xac, 0xbe, 0x86, 0x95, 0xf5, 0xbd,
  0xca, 0xf0, 0x16, 0xbe, 0xc7, 0x10, 0xb5, 0xbc, 0x28, 0x80, 0x16, 0x3d,
  0x91, 0xbe, 0x17, 0xbe, 0x5e, 0x65, 0x4a, 0xbe, 0x9b, 0x6b, 0x6e, 0x3d,
  0xa2, 0xdb, 0x5a, 0xbd, 0xd9, 0xba, 0x38, 0x3b, 0x62, 0x7c, 0x3d, 0xbe,
  0x7c, 0xc1, 0x0b, 0xbe, 0xc1, 0x92, 0x45, 0xbe, 0xe1, 0xfe, 0xa4, 0xbd,
  0xc6, 0xc1, 0x00, 0x3e, 0x86, 0xf8, 0x21, 0xbe, 0xeb, 0x26, 0x0d, 0xbe,
  0x73, 0x52, 0x24, 0xbd, 0x36, 0xf4, 0x5d, 0xbe, 0x10, 0x4f, 0x0b, 0xbe,
  0x2d, 0x46, 0x6a, 0x3b, 0x9b, 0x60, 0x52, 0x3d, 0x38, 0x34, 0x76, 0xbe,
  0x28, 0x5d, 0x50, 0x3c, 0x16, 0x21, 0x80, 0x3d, 0x26, 0xf7, 0x9c, 0xbd,
  0xf8, 0x4c, 0xcf, 0x3d, 0xb6, 0x07, 0xf7, 0x3d, 0xab, 0x2e, 0xef, 0xbd,
  0x30, 0x5e, 0xdf, 0x3d, 0x4e, 0x51, 0xb7, 0x3d, 0xdc, 0x62, 0x7f, 0xbe,
  0x38, 0xe7, 0x0b, 0x3e, 0x5a, 0xe6, 0x60, 0xbe, 0x42, 0x5c, 0x26, 0xbf,
  0x7f, 0xab, 0x8d, 0x3e, 0xdf, 0xb6, 0xe4, 0xbc, 0x4f, 0xd0, 0x37, 0xbe,
  0x8d, 0x7f, 0xdf, 0x3c, 0xc3, 0x41, 0x89, 0x3d, 0xb9, 0xc2, 0x4f, 0x3e,
  0x92, 0x87, 0xff, 0x3d, 0x5b, 0x47, 0xf2, 0xbe, 0x61, 0x4c, 0xd8, 0xbc,
  0x3e, 0xca, 0x15, 0xbe, 0x34, 0x1f, 0x10, 0xbf, 0x7c, 0x4d, 0xb4, 0xbe,
  0xb4, 0x47, 0x0d, 0xbe, 0x0a, 0x7a, 0xa7, 0x38, 0x4f, 0xec, 0x98, 0xbd,
  0x78, 0x21, 0xbe, 0xbe, 0x32, 0x6d, 0x33, 0x3e, 0x5b, 0x7e, 0xb4, 0xbd,
  0x82, 0xcf, 0xeb, 0xbd, 0x63, 0x8b, 0x1b, 0x3e, 0x6e, 0xd5, 0x1e, 0x3e,
  0x0b, 0x24, 0x14, 0x3f, 0x8d, 0x9b, 0xfb, 0xbc, 0xb7, 0xb9, 0x57, 0xbd,
  0x17, 0x57, 0x0e, 0xbc, 0xaf, 0xdf, 0x9b, 0xbe, 0xc8, 0x47, 0xfd, 0x3d,
  0xa0, 0x9d, 0x0d, 0xbe, 0x44, 0x4f, 0x0c, 0xbe, 0x15, 0x9b, 0xb5, 0x3d,
  0x85, 0xb4, 0x98, 0x3b, 0xc1, 0x69, 0x00, 0xbd, 0xa2, 0xc9, 0xdd, 0x3d,
  0x21, 0xf0, 0x96, 0xbe, 0x33, 0xb6, 0xd7, 0xbd, 0x94, 0xc0, 0xdb, 0x3e,
  0x40, 0x09, 0xb6, 0x3d, 0xfe, 0x1b, 0x26, 0x3f, 0x96, 0x1c, 0x5d, 0x3d,
  0x0b, 0x67, 0x6a, 0xbc, 0xbc, 0xfc, 0x8b, 0xbd, 0x57, 0x3f, 0xf8, 0xbd,
  0x81, 0xd0, 0xa9, 0x3d, 0x6f, 0x57, 0x80, 0xbe, 0x23, 0x96, 0x1a, 0xbd,
  0xe9, 0xf0, 0x50, 0x3e, 0xda, 0xa2, 0x1e, 0x3d, 0x91, 0x95, 0x23, 0x3e,
  0x84, 0x48, 0x13, 0xbe, 0xc3, 0xcf, 0x4e, 0x3c, 0x6b, 0xdd, 0x3b, 0x3e,
  0x9d, 0x02, 0xda, 0x3e, 0x1b, 0xda, 0x23, 0x3e, 0xd1, 0x3c, 0x19, 0x3f,
  0x1b, 0x3c, 0x9e, 0xbd, 0xea, 0x8b, 0x43, 0xbd, 0x75, 0xab, 0xa3, 0x3e,
  0xb6, 0xfb, 0x0a, 0xbe, 0x30, 0xd2, 0xde, 0x3d, 0xd8, 0xbe, 0x0e, 0x3e,
  0x50, 0x4f, 0x12, 0x3c, 0x0c, 0x0c, 0xe0, 0x3d, 0x85, 0xc3, 0xc5, 0x3d,
  0xa7, 0x7d, 0xe1, 0xbd, 0x8f, 0xb9, 0xe4, 0x3d, 0xf8, 0x6b, 0x47, 0x3d,
  0xf4, 0x1a, 0xfa, 0xbc, 0x3c, 0xd9, 0xb3, 0x3e, 0x2f, 0x01, 0xaf, 0x3d,
  0xa6, 0x92, 0x24, 0x3f, 0xb8, 0xbd, 0x42, 0x3d, 0x09, 0x46, 0x8b, 0x3c,
  0xbb, 0xd4, 0x9c, 0x3e, 0x13, 0xa9, 0xbd, 0xbe, 0xc6, 0xb8, 0x74, 0x3d,
  0xac, 0x34, 0x1c, 0x3d, 0xa8, 0x4b, 0x25, 0xbe, 0xd8, 0x2d, 0xc2, 0x3d,
  0x20, 0x6c, 0x4b, 0x3e, 0xd5, 0xdf, 0x8f, 0xbe, 0xb1, 0xe1, 0x9e, 0x3d,
  0xfc, 0x2d, 0x0c, 0x3e, 0x6b, 0x3c, 0x8f, 0xbd, 0x29, 0x28, 0x05, 0x3e,
  0x81, 0xf0, 0xde, 0x3d, 0xe2, 0x01, 0x4d, 0x3f, 0xd6, 0xdc, 0x24, 0xbc,
  0x74, 0xd2, 0x67, 0xbd, 0xd3, 0xc7, 0x08, 0xbc, 0x78, 0xba, 0x67, 0xbe,
  0x9a, 0x5c, 0x8b, 0xbd, 0xac, 0x07, 0xa2, 0xbc, 0xc3, 0xed, 0xe4, 0xbd,
  0xa5, 0x5d, 0x1e, 0x3e, 0x7e, 0xc9, 0x33, 0x3e, 0xb8, 0xd7, 0xd6, 0xbd,
  0x2e, 0x8a, 0x26, 0x3e, 0x8b, 0x17, 0x8b, 0xbe, 0xbc, 0xbd, 0xa8, 0x3b,
  0xd1, 0x36, 0x4a, 0x3e, 0x47, 0xd0, 0xd8, 0x3d, 0x36, 0x3d, 0x48, 0x3d,
  0x85, 0xd6, 0x20, 0xbc, 0x9f, 0x7d, 0x84, 0xbd, 0xb8, 0x9f, 0x00, 0xbe,
  0xfa, 0xf1, 0x2a, 0x3d, 0xeb, 0x58, 0x54, 0x3d, 0x2c, 0x11, 0x11, 0xbe,
  0xfe, 0xf0, 0xa9, 0xbd, 0x67, 0xf0, 0xb2, 0x3d, 0xca, 0x79, 0x48, 0x3e,
  0x9a, 0x12, 0x29, 0x3e, 0xdb, 0x6b, 0x54, 0xbe, 0xc0, 0xf1, 0x44, 0x3d,
  0xd3, 0x83, 0x86, 0x3b, 0x90, 0xd4, 0xd9, 0xbd, 0x66, 0xdb, 0x52, 0xbe,
  0xc7, 0x1e, 0xe6, 0x3d, 0xa2, 0x2f, 0x2e, 0xbe, 0x76, 0x0d, 0x11, 0x3e,
  0xfd, 0xb1, 0x6f, 0x3e, 0xa3, 0x50, 0x55, 0xbd, 0xe2, 0xa0, 0x1c, 0x3d,
  0xbf, 0xb5, 0xc9, 0xbb, 0x40, 0x9b, 0x37, 0xbd, 0x0e, 0x96, 0xe9, 0x3d,
  0xed, 0x30, 0x6d, 0xbe, 0xd0, 0x67, 0x7b, 0xbc, 0xc2, 0xd8, 0x3b, 0xbe,
  0xb6, 0xf3, 0xaa, 0x3e, 0x18, 0x26, 0xfc, 0xbd, 0x74, 0xc0, 0x7e, 0xbe,
  0x2f, 0xb3, 0x77, 0xbe, 0xee, 0xf4, 0xcd, 0xbe, 0x49, 0x7b, 0xad, 0x3d,
  0xc8, 0x61, 0x3f, 0x3d, 0xe7, 0x8e, 0xbc, 0xbd, 0x99, 0x33, 0xd6, 0x3d,
  0xb7, 0x1d, 0xbe, 0xbd, 0x89, 0x3e, 0x21, 0xbe, 0x56, 0xf4, 0x8d, 0x3d,
  0xac, 0x16, 0x0b, 0x3c, 0x93, 0xa1, 0x7e, 0xbe, 0x20, 0x0d, 0x85, 0xbd,
  0xa0, 0x01, 0xc7, 0xbd, 0xe4, 0x16, 0xc6, 0x3e, 0x50, 0xa0, 0x10, 0x3d,
  0x3a, 0xdc, 0x81, 0xbe, 0x0a, 0x1a, 0x28, 0x3d, 0x55, 0x54, 0x94, 0xbe,
  0x51, 0xd5, 0x6e, 0x3d, 0x36, 0xfe, 0x46, 0xbd, 0x32, 0x17, 0xde, 0xbd,
  0x4d, 0x43, 0x59, 0x3e, 0x04, 0x1b, 0xb2, 0xbd, 0xbb, 0x73, 0xd5, 0x3d,
  0x7a, 0xa2, 0xe5, 0x3c, 0x2c, 0x90, 0xdd, 0xbc, 0x2f, 0x5d, 0x0c, 0xbe,
  0xa8, 0x45, 0x94, 0xbc, 0x8a, 0x27, 0x7c, 0xbe, 0x03, 0xd3, 0x73, 0x3e,
  0x2d, 0xee, 0x5b, 0xbd, 0xf8, 0xce, 0x50, 0xbe, 0x20, 0x96, 0xfc, 0xbd,
  0x3a, 0xe8, 0xdd, 0xbe, 0x6f, 0xb0, 0x11, 0x3d, 0xdb, 0xeb, 0xb3, 0x3d,
  0xb3, 0x5a, 0x33, 0xbe, 0xa8, 0x53, 0x28, 0x3c, 0xaa, 0xd8, 0x12, 0xbe,
  0x6b, 0xab, 0x64, 0x3d, 0x19, 0xea, 0x56, 0x3d, 0x6a, 0xd1, 0xa7, 0x3d,
  0x1b, 0x86, 0x2f, 0xbd, 0x9c, 0x59, 0x47, 0x3d, 0x43, 0x7b, 0x9d, 0xbd,
  0x17, 0x53, 0xb8, 0xbd, 0x56, 0xa1, 0xac, 0xbd, 0x96, 0xe9, 0x7f, 0xbe,
  0x87, 0x46, 0x09, 0xbe, 0x73, 0x8f, 0x8b, 0xbe, 0xfa, 0x85, 0x05, 0xbe,
  0x57, 0x0f, 0xd9, 0xbc, 0xee, 0x42, 0xf1, 0xbd, 0x15, 0x15, 0x08, 0xbe,
  0x5d, 0xf0, 0xf7, 0xbd, 0x91, 0x2f, 0x17, 0xbd, 0xe8, 0xa3, 0x97, 0x3d,
  0x3e, 0xeb, 0xb3, 0x3d, 0xc3, 0x2d, 0x3a, 0xbe, 0xc2, 0x84, 0x06, 0x3d,
  0xbb, 0xc3, 0x3f, 0xbe, 0x93, 0x2b, 0x6a, 0x3d, 0xc6, 0xd4, 0xf8, 0xbd,
  0x9e, 0x3c, 0x46, 0xbe, 0xfb, 0x52, 0x8d, 0xbe, 0x10, 0x49, 0x9b, 0xbe,
  0xe7, 0x91, 0x04, 0x3c, 0x46, 0x31, 0xa0, 0x3b, 0x8e, 0x3f, 0x19, 0xbe,
  0x0f, 0xf9, 0x81, 0xbe, 0xd9, 0xf2, 0x6d, 0xbe, 0x76, 0x56, 0x12, 0xbc,
  0x56, 0x01, 0x49, 0x3d, 0x75, 0x14, 0x8f, 0x3d, 0xf5, 0x16, 0x80, 0x3c,
  0x2f, 0xa9, 0xdb, 0x3b, 0xd6, 0x9c, 0x0a, 0xbe, 0xc9, 0x80, 0x4f, 0x3e,
  0x62, 0x99, 0x15, 0x3e, 0x57, 0x01, 0xd5, 0xbd, 0xe1, 0x5d, 0xc6, 0xbd,
  0xcc, 0xf5, 0x5e, 0x3c, 0xfb, 0xf2, 0x10, 0x3d, 0x6c, 0xaa, 0xac, 0xbc,
  0xfe, 0x30, 0x0b, 0xbd, 0x57, 0x6f, 0xaa, 0xbd, 0x65, 0x80, 0x8f, 0x3b,
  0xa2, 0x53, 0x18, 0x3d, 0x3d, 0xd5, 0xef, 0x3c, 0x8d, 0xc6, 0x52, 0xbe,
  0x3e, 0xa6, 0xf9, 0xbe, 0x22, 0x58, 0x96, 0xbe, 0xd4, 0xf5, 0xc7, 0x3d,
  0xfc, 0xd6, 0xc7, 0xbb, 0xdb, 0x30, 0x39, 0xbe, 0x07, 0xde, 0x4c, 0xbe,
  0x0d, 0xea, 0x8a, 0x3d, 0x59, 0x05, 0x41, 0x3f, 0xfe, 0x12, 0x02, 0xbf,
  0x8e, 0x02, 0x33, 0xbe, 0x40, 0x33, 0x8e, 0xbe, 0xdb, 0x49, 0x30, 0x3e,
  0x69, 0x07, 0xc9, 0xbd, 0xca, 0xe7, 0x8e, 0x3d, 0x68, 0xa6, 0x6d, 0xbc,
  0xe9, 0x84, 0x95, 0xba, 0x32, 0x2c, 0x10, 0x3d, 0x04, 0xfc, 0x64, 0x3d,
  0x18, 0xdf, 0xe5, 0xbb, 0x8b, 0x9d, 0xa5, 0x3c, 0x9e, 0x05, 0xd3, 0xbb,
  0xea, 0x97, 0x11, 0xbd, 0x7a, 0x35, 0x06, 0x3d, 0x4e, 0x37, 0xad, 0x3f,
  0x55, 0x56, 0x58, 0xbe, 0xe4, 0x82, 0x38, 0xbe, 0xb6, 0x67, 0x0e, 0xbd,
  0x93, 0xec, 0xa5, 0x3d, 0x7b, 0x19, 0x3e, 0x3b, 0xb1, 0xd7, 0x26, 0x3d,
  0x7d, 0xae, 0x8c, 0x3d, 0xa8, 0xcd, 0xdc, 0x3d, 0x47, 0x6f, 0xd5, 0x3d,
  0xb4, 0x98, 0xe8, 0x3d, 0xd0, 0x7c, 0xd8, 0xbd, 0xe1, 0xe4, 0x86, 0x3d,
  0xb8, 0xfa, 0x1d, 0x3f, 0x0b, 0x7a, 0x3a, 0xbe, 0x32, 0xb6, 0xed, 0xbc,
  0xe3, 0x03, 0xb2, 0x3f, 0xa2, 0x6a, 0x02, 0xbe, 0x7c, 0x9e, 0x08, 0xbe,
  0xba, 0xde, 0xea, 0x3d, 0xb3, 0x3a, 0x61, 0x3d, 0x5e, 0x27, 0xf4, 0xbd,
  0x79, 0x0a, 0xdf, 0x3c, 0xd6, 0xbe, 0xdf, 0x3d, 0x65, 0x8b, 0x6b, 0xbd,
  0x0c, 0xa7, 0x92, 0xbd, 0x7e, 0x15, 0xd3, 0xbc, 0x8b, 0x8f, 0x3d, 0x3d,
  0xc7, 0x44, 0xec, 0x3e, 0x2a, 0xc7, 0xa2, 0x3e, 0x6b, 0x84, 0x24, 0xbe,
  0x3a, 0x87, 0x1e, 0xbd, 0x9a, 0x66, 0xa7, 0x3f, 0xec, 0xf8, 0x2d, 0xbe,
  0x8b, 0x76, 0xcd, 0xbd, 0xc4, 0x01, 0x06, 0xbe, 0x99, 0xd8, 0x7a, 0x3d,
  0xe0, 0x56, 0xa0, 0x3d, 0xf8, 0x87, 0x20, 0xbe, 0xef, 0x38, 0x3c, 0x3c,
  0xee, 0x05, 0xf0, 0xbd, 0xc8, 0x82, 0x30, 0xbc, 0x52, 0x8a, 0xb1, 0xbd,
  0xe7, 0xf6, 0xa6, 0x3d, 0x41, 0xeb, 0x6d, 0xbe, 0xbe, 0xf9, 0x1b, 0x3f,
  0x8d, 0x1a, 0x4a, 0xbe, 0xbe, 0xf0, 0xc0, 0x3d, 0xe1, 0x08, 0xcb, 0x3f,
  0x75, 0x80, 0x26, 0xbe, 0x5e, 0xb9, 0x68, 0xbe, 0xa3, 0x65, 0x02, 0x3d,
  0x07, 0x24, 0x5c, 0x3e, 0xfb, 0xfd, 0xbd, 0xbd, 0xca, 0x57, 0xf5, 0xbe,
  0xd5, 0xf0, 0x0a, 0xbd, 0xba, 0xbf, 0x28, 0xbe, 0x34, 0x2f, 0x23, 0x3d,
  0xc3, 0x28, 0xdc, 0xbc, 0x8d, 0xeb, 0x0e, 0x3d, 0xd5, 0xca, 0x68, 0xbe,
  0xd2, 0xe9, 0xe3, 0xbd, 0x3a, 0xb1, 0xb5, 0xbd, 0x84, 0x01, 0x24, 0x3c,
  0x06, 0xd5, 0xcf, 0x3f, 0x3d, 0x12, 0xa5, 0xbe, 0xdf, 0xeb, 0x81, 0xbd,
  0x7a, 0x75, 0xa2, 0xbc, 0x38, 0x1c, 0x78, 0x3e, 0x60, 0x41, 0x17, 0xbe,
  0x50, 0xe4, 0x54, 0xbd, 0xf0, 0xb0, 0xce, 0x3d, 0x18, 0x2e, 0x8a, 0x3d,
  0x3a, 0xbc, 0x9c, 0x3d, 0x3d, 0x46, 0x9a, 0x3d, 0x95, 0xa4, 0xcd, 0xbd,
  0x6c, 0x60, 0x84, 0xbe, 0x3f, 0xe1, 0xb9, 0xbd, 0xca, 0xb7, 0xaf, 0xbd,
  0x3c, 0x85, 0xf8, 0x3b, 0xc6, 0x77, 0x33, 0x3e, 0x55, 0xbe, 0xa0, 0xbe,
  0x60, 0x6a, 0xd1, 0x3b, 0x4b, 0xd1, 0x51, 0x3e, 0x13, 0x1f, 0x21, 0x3e,
  0x63, 0x93, 0x46, 0xbe, 0x64, 0xee, 0x5a, 0xbe, 0xac, 0xc0, 0xe8, 0x3d,
  0xf8, 0x95, 0x5e, 0xbe, 0x25, 0x3d, 0xa4, 0x39, 0x79, 0x64, 0x8b, 0xbe,
  0xb8, 0xe7, 0xb3, 0x3d, 0x27, 0xb6, 0x2b, 0x3d, 0xc6, 0xb0, 0x95, 0xbe,
  0x51, 0x0b, 0x34, 0xbe, 0x02, 0x04, 0x15, 0x3e, 0x00, 0x72, 0xf1, 0x3d,
  0xef, 0x6e, 0x58, 0xbe, 0x30, 0x5f, 0x8d, 0xbd, 0x50, 0x97, 0x21, 0xbe,
  0x63, 0x79, 0x4a, 0x3e, 0x65, 0xbd, 0x20, 0x3c, 0xff, 0x81, 0xfd, 0x3c,
  0x4c, 0x02, 0x1e, 0xbe, 0xeb, 0x54, 0x15, 0xbe, 0xa0, 0x5b, 0x65, 0xbd,
  0x28, 0x10, 0xbe, 0x3c, 0xd7, 0xbe, 0xe0, 0xbd, 0x62, 0xb4, 0x96, 0xbc,
  0xa5, 0x20, 0xd5, 0xbc, 0x90, 0xd1, 0x98, 0xbd, 0x82, 0xe1, 0x68, 0x3c,
  0x9e, 0x42, 0x07, 0x3d, 0xcb, 0x18, 0x8f, 0xbe, 0x3f, 0x27, 0x12, 0xbd,
  0xf8, 0x8b, 0x10, 0x3e, 0x1c, 0x82, 0x11, 0x3d, 0xb4, 0x17, 0x99, 0x3d,
  0x4e, 0xfc, 0x01, 0xbe, 0xbc, 0xc9, 0x55, 0xbe, 0xd8, 0xc3, 0x55, 0x3d,
  0xcf, 0xff, 0xad, 0x3d, 0x04, 0xc5, 0xa8, 0xbe, 0xe1, 0x6f, 0x05, 0x3e,
  0x85, 0xd6, 0x3f, 0xbd, 0x50, 0x52, 0x84, 0xbb, 0x29, 0x3f, 0x07, 0xbd,
  0x77, 0xca, 0xcc, 0x3d, 0x36, 0x8e, 0xf7, 0xbd, 0x97, 0xca, 0x36, 0xbe,
  0xeb, 0xe4, 0x8d, 0xbe, 0xf6, 0xaa, 0xc7, 0x3d, 0x1a, 0x77, 0xbd, 0x3d,
  0x0d, 0x17, 0xa3, 0x3d, 0xb3, 0xdd, 0x8c, 0xbd, 0x0c, 0x5d, 0x46, 0xbe,
  0xb9, 0x5d, 0xe4, 0xbd, 0x35, 0x7d, 0x09, 0x3e, 0x68, 0xa0, 0xe5, 0xbe,
  0x38, 0x5d, 0x40, 0xbe, 0x8b, 0x34, 0x5f, 0x3d, 0x4d, 0x97, 0xc6, 0xbc,
  0xb1, 0x9a, 0x99, 0xbe, 0x83, 0xde, 0x35, 0x3e, 0x02, 0x04, 0x19, 0xbe,
  0x19, 0x7e, 0xff, 0xbe, 0xe3, 0xf7, 0x2a, 0xbe, 0x0f, 0xd4, 0x29, 0x3e,
  0x83, 0x32, 0x76, 0x3e, 0xb0, 0xc2, 0x10, 0xbe, 0x00, 0xcf, 0x1b, 0xbe,
  0x30, 0xbf, 0x8f, 0xbe, 0xeb, 0x22, 0x39, 0xbe, 0x04, 0xee, 0xa7, 0x3b,
  0x34, 0xf1, 0xbf, 0xbd, 0xbc, 0x97, 0x06, 0x3d, 0xa3, 0xa2, 0x29, 0xbe,
  0xd2, 0x9f, 0x9d, 0x3d, 0xd1, 0x0d, 0xed, 0xbe, 0xd9, 0xb4, 0x7a, 0x3d,
  0x4d, 0x6b, 0x33, 0x3e, 0x07, 0x95, 0x6f, 0xbe, 0x2b, 0x9d, 0x13, 0xbd,
  0xea, 0xc9, 0x72, 0x3d, 0x6e, 0xf1, 0x22, 0x3e, 0xcc, 0x1f, 0x00, 0xbe,
  0x88, 0xcb, 0x06, 0xbf, 0x7b, 0x14, 0x0f, 0x3e, 0xc0, 0x62, 0x18, 0xbe,
  0xab, 0xfa, 0x86, 0x3d, 0x52, 0x22, 0xc4, 0x3d, 0xae, 0x80, 0xa1, 0x3d,
  0x2f, 0x0c, 0x14, 0x3d, 0x1f, 0x31, 0xd3, 0xbc, 0xde, 0x00, 0xf4, 0xbd,
  0x42, 0xd0, 0xde, 0x3d, 0xf6, 0x1a, 0x90, 0xbe, 0xa1, 0x40, 0x4a, 0xbe,
  0xc4, 0x50, 0xb1, 0xbd, 0xf4, 0x49, 0xb4, 0xbd, 0x15, 0x65, 0x3a, 0x3e,
  0xb5, 0x47, 0xed, 0xbc, 0x33, 0x89, 0xdb, 0xbd, 0xea, 0x74, 0xb7, 0x3b,
  0x56, 0x36, 0xfc, 0xbd, 0x47, 0x77, 0xe7, 0x3d, 0x22, 0xa2, 0x82, 0x3c,
  0x8a, 0xda, 0x0f, 0x3d, 0xd2, 0x04, 0x90, 0xbe, 0x52, 0x9c, 0xce, 0xbd,
  0xbe, 0xcf, 0x88, 0x3c, 0x0f, 0x67, 0x15, 0x3e, 0x46, 0x72, 0x52, 0x3e,
  0x0d, 0x8e, 0x06, 0xbe, 0x50, 0xa6, 0x0a, 0xbe, 0xd4, 0xa8, 0x07, 0x3e,
  0x31, 0xd4, 0x8d, 0x39, 0x88, 0x98, 0xef, 0x3d, 0x45, 0x3c, 0xd5, 0xbd,
  0x47, 0x4e, 0x0f, 0x3c, 0x36, 0xea, 0x37, 0xbe, 0x81, 0xde, 0x98, 0x3d,
  0x29, 0x73, 0x43, 0xbd, 0xc4, 0x72, 0xd2, 0xbc, 0x84, 0x4e, 0xd4, 0xbd,
  0xa1, 0xff, 0x94, 0x3c, 0xed, 0xef, 0x6f, 0xbc, 0x04, 0x9c, 0x24, 0xbb,
  0x3f, 0xa1, 0xf7, 0x3f, 0x5f, 0x07, 0x4c, 0xbd, 0xd9, 0xbb, 0x99, 0x3d,
  0x7b, 0x3c, 0x0e, 0xbe, 0x19, 0x1d, 0x29, 0x3e, 0x05, 0x89, 0xc4, 0x3d,
  0xe2, 0x76, 0xb8, 0x3d, 0xf0, 0x27, 0xf7, 0x3d, 0x2c, 0xa0, 0x6c, 0xbe,
  0x6e, 0x07, 0xec, 0x3c, 0x31, 0x8b, 0xbb, 0x3d, 0x84, 0xc6, 0x3b, 0xbd,
  0x89, 0xec, 0x25, 0xbe, 0x26, 0xac, 0xb6, 0xbb, 0x42, 0x91, 0xdf, 0xbd,
  0xe1, 0x11, 0x81, 0xbd, 0x42, 0x68, 0x28, 0x40, 0x3c, 0x93, 0x33, 0xbe,
  0x25, 0x8e, 0x09, 0xbe, 0x27, 0x18, 0x15, 0x3e, 0x5d, 0x31, 0xe8, 0x3e,
  0x54, 0x4c, 0x16, 0xbe, 0xed, 0xdc, 0x23, 0x3e, 0x87, 0x85, 0x4b, 0x3c,
  0x42, 0x65, 0xc4, 0xbc, 0x6b, 0x27, 0x1a, 0xbd, 0x68, 0x4f, 0x29, 0xbc,
  0x77, 0x29, 0xe7, 0xbd, 0xb3, 0xdf, 0x2b, 0xbe, 0x88, 0x80, 0x60, 0x3d,
  0x1c, 0x05, 0x84, 0xbe, 0xa5, 0xb2, 0xd9, 0xbc, 0xf1, 0xf8, 0x3f, 0x40,
  0x35, 0x4a, 0x84, 0xbe, 0x19, 0xbd, 0xea, 0xbd, 0x28, 0x23, 0x20, 0x3e,
  0x16, 0x0b, 0xbc, 0x3d, 0xda, 0x74, 0xd6, 0x3d, 0x45, 0x78, 0x02, 0x3d,
  0x1f, 0xfd, 0x4e, 0x3d, 0x02, 0xac, 0x85, 0xbd, 0x30, 0xb6, 0x0b, 0x3a,
  0xba, 0x24, 0xa1, 0xbd, 0x5a, 0x06, 0xc8, 0xbd, 0x6d, 0xc5, 0x8d, 0x3c,
  0x53, 0xfc, 0x6b, 0x3e, 0x73, 0x78, 0xb6, 0xbe, 0x6b, 0x9f, 0x51, 0xbd,
  0xf8, 0xe8, 0x29, 0x40, 0xba, 0x61, 0xa2, 0xbd, 0x89, 0x26, 0xd5, 0xbd,
  0xcb, 0xad, 0x46, 0x3d, 0x92, 0x51, 0xab, 0x3e, 0x52, 0xfa, 0x3e, 0xbd,
  0x35, 0xb5, 0x55, 0xbd, 0x85, 0x9d, 0x78, 0x3d, 0x0e, 0x27, 0x3a, 0xbe,
  0xf2, 0x8b, 0x56, 0x3d, 0x8c, 0xec, 0xfc, 0xbb, 0x16, 0xc4, 0xce, 0x3c,
  0xa3, 0xcb, 0x8d, 0x3e, 0x6f, 0xb0, 0xd6, 0xbd, 0x6a, 0xc8, 0x3a, 0xbe,
  0x82, 0x64, 0x00, 0xbd, 0x06, 0x40, 0x40, 0x40, 0x2a, 0x36, 0x94, 0x3b,
  0x3a, 0x62, 0x88, 0xbd, 0xbd, 0x91, 0xb9, 0x3d, 0xf5, 0xa5, 0xcf, 0x3e,
  0x8f, 0x4f, 0x74, 0x3d, 0xb2, 0xdb, 0xd0, 0x3d, 0x8e, 0x94, 0x59, 0x3d,
  0xb1, 0xcb, 0xbc, 0xbd, 0xc0, 0x1c, 0x52, 0x3d, 0x50, 0x13, 0x23, 0x3d,
  0x46, 0xf3, 0x88, 0xbd, 0x01, 0x3a, 0x8c, 0x3e, 0x16, 0xe4, 0xc9, 0xbb,
  0xa3, 0x35, 0x8a, 0xbd, 0x9d, 0xc1, 0xbe, 0x3a, 0x35, 0xfc, 0x2a, 0x40,
  0xac, 0xb4, 0x28, 0xbc, 0xae, 0xfa, 0xe7, 0x3c, 0x97, 0x0a, 0xe8, 0x3c,
  0x30, 0x89, 0x81, 0x3e, 0xa1, 0xc0, 0x24, 0xbc, 0xc0, 0x79, 0x61, 0x3e,
  0xb6, 0xfd, 0x8f, 0x3c, 0x19, 0xea, 0x4b, 0xbe, 0x7f, 0x95, 0xea, 0x3c,
  0x39, 0xda, 0xc9, 0xbc, 0xc5, 0x2d, 0x0f, 0xbe, 0x91, 0xe2, 0x88, 0xbd,
  0x45, 0xef, 0x9c, 0xbc, 0xc6, 0x1e, 0x78, 0xbe, 0xcc, 0x0a, 0x00, 0x3e,
  0xa1, 0xeb, 0xa5, 0x3e, 0xea, 0x63, 0x9f, 0xbd, 0x8a, 0x79, 0xd5, 0x3d,
  0x0d, 0xde, 0xbd, 0x3b, 0x4a, 0xcb, 0x1b, 0x3c, 0xb1, 0x63, 0xd5, 0xbc,
  0xdb, 0xf4, 0x6f, 0x3e, 0xcf, 0x56, 0xb8, 0xbc, 0x16, 0x71, 0xb9, 0xbe,
  0x57, 0x56, 0x2e, 0x3d, 0x61, 0x69, 0x22, 0xbe, 0x93, 0x62, 0x6e, 0xbe,
  0x96, 0x71, 0x1f, 0xbe, 0x34, 0xcd, 0xee, 0x3c, 0x69, 0x08, 0xad, 0xbd,
  0xa8, 0xed, 0x9d, 0x3b, 0xeb, 0x8e, 0x01, 0x3e, 0x38, 0x73, 0xa5, 0xbc,
  0x39, 0x5b, 0xdc, 0x3c, 0xc5, 0xdf, 0x60, 0x3e, 0x4c, 0xd1, 0x70, 0xbd,
  0x1d, 0x90, 0xe0, 0x3d, 0x0b, 0x00, 0x3a, 0x3e, 0xf9, 0x81, 0xb2, 0xbe,
  0x2f, 0xd3, 0xa3, 0xbd, 0xa5, 0xdf, 0xc7, 0xbd, 0x0b, 0xbc, 0x65, 0xbe,
  0x70, 0x48, 0x78, 0xbe, 0xed, 0xa1, 0xfc, 0x3c, 0xfd, 0xb2, 0x2d, 0xbe,
  0x37, 0x4c, 0x0e, 0xbe, 0x86, 0xb5, 0xe2, 0x3b, 0x09, 0x93, 0xa3, 0xbc,
  0xd9, 0xfc, 0x7c, 0xbe, 0xe5, 0xce, 0xcd, 0xbd, 0xa8, 0x23, 0x06, 0x3d,
  0xf5, 0xa4, 0x01, 0x3d, 0x4d, 0xfb, 0x87, 0xbe, 0x88, 0x7d, 0xce, 0x3d,
  0x9d, 0xe3, 0x27, 0xbe, 0xc1, 0x2b, 0x86, 0x3c, 0x1e, 0x39, 0x65, 0x3d,
  0x69, 0xd1, 0xc2, 0xbd, 0xb3, 0x6d, 0xd8, 0x3d, 0xdb, 0xd1, 0x2a, 0xbe,
  0x6c, 0x27, 0x81, 0x3d, 0x14, 0xe7, 0x93, 0x3c, 0x87, 0x8b, 0xac, 0x3d,
  0xfc, 0x54, 0x25, 0x3e, 0x1c, 0x9b, 0x4e, 0xbe, 0xdd, 0xf0, 0xae, 0xbd,
  0x53, 0x57, 0xb8, 0xbd, 0x78, 0xe8, 0x56, 0x3c, 0x03, 0xd4, 0xb5, 0x3d,
  0x13, 0x57, 0x4e, 0x3d, 0xeb, 0x9e, 0x2d, 0xbe, 0x34, 0x1f, 0x0c, 0xbe,
  0x93, 0x64, 0x02, 0xbe, 0x89, 0x61, 0x4c, 0xbd, 0x31, 0x28, 0x06, 0xbe,
  0x94, 0xa4, 0x88, 0xbd, 0x45, 0xf1, 0x69, 0x3d, 0xf5, 0x09, 0xa4, 0xbc,
  0xee, 0xdb, 0x20, 0xbd, 0x80, 0x37, 0xb4, 0x3b, 0x04, 0xd1, 0xf0, 0xbc,
  0xb9, 0x90, 0x8e, 0xbd, 0x4e, 0x89, 0x88, 0x3d, 0x9a, 0x85, 0xb4, 0x3d,
  0xe0, 0x53, 0xff, 0x3d, 0x3b, 0x25, 0x27, 0xbc, 0xc2, 0xfb, 0x94, 0x3c,
  0x33, 0xc1, 0x28, 0xbd, 0xf3, 0xe2, 0x0e, 0xbe, 0x82, 0xae, 0x2d, 0xbe,
  0x2a, 0x71, 0x2e, 0x3d, 0xde, 0xf0, 0x3f, 0xbe, 0x72, 0xf1, 0x5e, 0x3d,
  0xaa, 0xdd, 0x89, 0x3e, 0x87, 0xb1, 0x24, 0x3e, 0x4f, 0xa2, 0x23, 0xbe,
  0x6f, 0x4e, 0x4a, 0x3e, 0x3f, 0xa0, 0x6b, 0xbd, 0xd3, 0x7d, 0x93, 0xbd,
  0xe7, 0x95, 0x1d, 0xbc, 0xb6, 0x47, 0x0b, 0x3d, 0xb6, 0x0b, 0x60, 0xbd,
  0x36, 0x81, 0x44, 0xbe, 0xb3, 0x82, 0x12, 0x3d, 0x5f, 0xc4, 0xc3, 0x3c,
  0x5f, 0xb4, 0x89, 0xbe, 0x62, 0x16, 0xf5, 0x3d, 0xa7, 0xe8, 0x00, 0x3e,
  0x72, 0xc3, 0x2c, 0xbe, 0x1e, 0x25, 0xa4, 0xbd, 0xd0, 0x70, 0x99, 0xbc,
  0x8f, 0xe3, 0xfd, 0x3d, 0x6f, 0x45, 0xd1, 0x3c, 0x74, 0x50, 0x87, 0xbb,
  0xf6, 0x47, 0x1c, 0x3e, 0x6f, 0xc6, 0xde, 0xbd, 0x42, 0x91, 0x4a, 0x3e,
  0x66, 0x7d, 0x71, 0xbd, 0xf6, 0x03, 0x12, 0xbe, 0x35, 0x37, 0x03, 0x3c,
  0x6b, 0x6a, 0x2e, 0x3d, 0x80, 0x66, 0xb4, 0xbd, 0xae, 0xae, 0x09, 0x3e,
  0xfe, 0x0e, 0x84, 0xbd, 0x1e, 0xb6, 0xf0, 0x3b, 0x8d, 0x75, 0xad, 0x3d,
  0x8b, 0x7a, 0x36, 0xbd, 0x73, 0x62, 0x69, 0xbc, 0x7d, 0xf9, 0x00, 0xbd,
  0xe4, 0x6a, 0x0c, 0xbe, 0x15, 0x6c, 0xad, 0xbc, 0x5f, 0xe0, 0x4e, 0x3d,
  0x1e, 0x2d, 0x89, 0xbd, 0x13, 0xeb, 0x99, 0xbd, 0xd0, 0x18, 0x8d, 0xbe,
  0x46, 0xfe, 0xff, 0xff, 0x10, 0x00, 0x00, 0x00, 0x05, 0x00, 0x00, 0x00,
  0x14, 0x00, 0x00, 0x00, 0x2c, 0x00, 0x00, 0x00, 0x02, 0x00, 0x00, 0x00,
  0x10, 0x00, 0x00, 0x00, 0x70, 0x00, 0x00, 0x00, 0x17, 0x00, 0x00, 0x00,
  0x73, 0x65, 0x71, 0x75, 0x65, 0x6e, 0x74, 0x69, 0x61, 0x6c, 0x2f, 0x64,
  0x65, 0x6e, 0x73, 0x65, 0x2f, 0x4d, 0x61, 0x74, 0x4d, 0x75, 0x6c, 0x00,
  0x34, 0xfe, 0xff, 0xff, 0x2a, 0xff, 0xff, 0xff, 0x04, 0x00, 0x00, 0x00,
  0x08, 0x00, 0x00, 0x00, 0xff, 0xff, 0xff, 0xff, 0x70, 0x00, 0x00, 0x00,
  0x00, 0x00, 0x0e, 0x00, 0x18, 0x00, 0x08, 0x00, 0x07, 0x00, 0x0c, 0x00,
  0x10, 0x00, 0x14, 0x00, 0x0e, 0x00, 0x00, 0x00, 0x00, 0x00, 0x00, 0x02,
  0x10, 0x00, 0x00, 0x00, 0x04, 0x00, 0x00, 0x00, 0x10, 0x00, 0x00, 0x00,
  0x2c, 0x00, 0x00, 0x00, 0x01, 0x00, 0x00, 0x00, 0x02, 0x00, 0x00, 0x00,
  0x18, 0x00, 0x00, 0x00, 0x73, 0x65, 0x71, 0x75, 0x65, 0x6e, 0x74, 0x69,
  0x61, 0x6c, 0x2f, 0x66, 0x6c, 0x61, 0x74, 0x74, 0x65, 0x6e, 0x2f, 0x43,
  0x6f, 0x6e, 0x73, 0x74, 0x00, 0x00, 0x00, 0x00, 0x9c, 0xfe, 0xff, 0xff,
  0x92, 0xff, 0xff, 0xff, 0x04, 0x00, 0x00, 0x00, 0x10, 0x00, 0x00, 0x00,
  0xb6, 0x8e, 0xe0, 0xbf, 0x33, 0xe0, 0xa3, 0x3f, 0x8f, 0x5b, 0x57, 0xbf,
  0xa1, 0x16, 0x42, 0x3d, 0x0a, 0xff, 0xff, 0xff, 0x10, 0x00, 0x00, 0x00,
  0x03, 0x00, 0x00, 0x00, 0x10, 0x00, 0x00, 0x00, 0x3c, 0x00, 0x00, 0x00,
  0x01, 0x00, 0x00, 0x00, 0x04, 0x00, 0x00, 0x00, 0x29, 0x00, 0x00, 0x00,
  0x73, 0x65, 0x71, 0x75, 0x65, 0x6e, 0x74, 0x69, 0x61, 0x6c, 0x2f, 0x64,
  0x65, 0x6e, 0x73, 0x65, 0x5f, 0x31, 0x2f, 0x42, 0x69, 0x61, 0x73, 0x41,
  0x64, 0x64, 0x2f, 0x52, 0x65, 0x61, 0x64, 0x56, 0x61, 0x72, 0x69, 0x61,
  0x62, 0x6c, 0x65, 0x4f, 0x70, 0x00, 0x00, 0x00, 0x60, 0xff, 0xff, 0xff,
  0x00, 0x00, 0x06, 0x00, 0x08, 0x00, 0x04, 0x00, 0x06, 0x00, 0x00, 0x00,
  0x04, 0x00, 0x00, 0x00, 0x40, 0x00, 0x00, 0x00, 0xa3, 0xa6, 0xce, 0xbe,
  0xa7, 0x01, 0xee, 0xbe, 0x71, 0xd5, 0x6a, 0x3c, 0xa8, 0x73, 0x4c, 0x3e,
  0xce, 0x13, 0x4d, 0xbf, 0xcd, 0xc3, 0xe0, 0x3f, 0xc2, 0x9d, 0xd3, 0x3f,
  0x6f, 0x0c, 0x90, 0x3f, 0xa6, 0x2b, 0xfc, 0xbd, 0xf6, 0x31, 0xec, 0xbe,
  0x74, 0x19, 0x62, 0xbf, 0xe3, 0x89, 0x06, 0x40, 0xc9, 0xbc, 0xd5, 0x3e,
  0x7b, 0xe3, 0x5b, 0xbf, 0x8e, 0x8b, 0x88, 0x3f, 0x2f, 0x55, 0x00, 0xbf,
  0xae, 0xff, 0xff, 0xff, 0x10, 0x00, 0x00, 0x00, 0x02, 0x00, 0x00, 0x00,
  0x10, 0x00, 0x00, 0x00, 0x3c, 0x00, 0x00, 0x00, 0x01, 0x00, 0x00, 0x00,
  0x10, 0x00, 0x00, 0x00, 0x27, 0x00, 0x00, 0x00, 0x73, 0x65, 0x71, 0x75,
  0x65, 0x6e, 0x74, 0x69, 0x61, 0x6c, 0x2f, 0x64, 0x65, 0x6e, 0x73, 0x65,
  0x2f, 0x42, 0x69, 0x61, 0x73, 0x41, 0x64, 0x64, 0x2f, 0x52, 0x65, 0x61,
  0x64, 0x56, 0x61, 0x72, 0x69, 0x61, 0x62, 0x6c, 0x65, 0x4f, 0x70, 0x00,
  0x04, 0x00, 0x06, 0x00, 0x04, 0x00, 0x00, 0x00, 0x00, 0x00, 0x0e, 0x00,
  0x14, 0x00, 0x04, 0x00, 0x00, 0x00, 0x08, 0x00, 0x0c, 0x00, 0x10, 0x00,
  0x0e, 0x00, 0x00, 0x00, 0x10, 0x00, 0x00, 0x00, 0x01, 0x00, 0x00, 0x00,
  0x1c, 0x00, 0x00, 0x00, 0x2c, 0x00, 0x00, 0x00, 0x04, 0x00, 0x00, 0x00,
  0x01, 0x00, 0x00, 0x00, 0x40, 0x00, 0x00, 0x00, 0x03, 0x00, 0x00, 0x00,
  0x01, 0x00, 0x00, 0x00, 0x0c, 0x00, 0x00, 0x00, 0x63, 0x6f, 0x6e, 0x76,
  0x32, 0x64, 0x5f, 0x69, 0x6e, 0x70, 0x75, 0x74, 0x00, 0x00, 0x00, 0x00,
  0xfc, 0xff, 0xff, 0xff, 0x04, 0x00, 0x04, 0x00, 0x04, 0x00, 0x00, 0x00
};

unsigned int model_tflite_len = 12384;// Fill the int in `src/model.cc` here