#include "magic_wand_model_data.h"

// We need to keep the data array aligned on some architectures.
#ifdef __has_attribute
#define HAVE_ATTRIBUTE(x) __has_attribute(x)
#else
#define HAVE_ATTRIBUTE(x) 0
#endif
#if HAVE_ATTRIBUTE(aligned) || (defined(__GNUC__) && !defined(__clang__))
#define DATA_ALIGN_ATTRIBUTE __attribute__((aligned(4)))
#else
#define DATA_ALIGN_ATTRIBUTE
#endif

const unsigned char g_magic_wand_model_data[] DATA_ALIGN_ATTRIBUTE = {
  // Paste the data of the char array in `src/model.cc` here
  0x08, 0x00, 0x00, 0x00, 0x54, 0x46, 0x4c, 0x33, 0x62, 0xff, 0xff, 0xff,
  0x03, 0x00, 0x00, 0x00, 0x10, 0x00, 0x00, 0x00, 0x24, 0x00, 0x00, 0x00,
  0x78, 0x00, 0x00, 0x00, 0x24, 0x00, 0x00, 0x00, 0x05, 0x00, 0x00, 0x00,
  0x78, 0x05, 0x00, 0x00, 0xb0, 0x04, 0x00, 0x00, 0xe0, 0x02, 0x00, 0x00,
  0x60, 0x02, 0x00, 0x00, 0x54, 0x01, 0x00, 0x00, 0x01, 0x00, 0x00, 0x00,
  0x78, 0x00, 0x00, 0x00, 0x13, 0x00, 0x00, 0x00, 0xd4, 0x2f, 0x00, 0x00,
  0xd0, 0x2f, 0x00, 0x00, 0xdc, 0x2e, 0x00, 0x00, 0x68, 0x2e, 0x00, 0x00,
  0xfc, 0x2d, 0x00, 0x00, 0xac, 0x11, 0x00, 0x00, 0x98, 0x10, 0x00, 0x00,
  0xbc, 0x0e, 0x00, 0x00, 0x60, 0x06, 0x00, 0x00, 0xfc, 0x05, 0x00, 0x00,
  0x78, 0x05, 0x00, 0x00, 0xa8, 0x2f, 0x00, 0x00, 0xa4, 0x2f, 0x00, 0x00,
  0xa0, 0x2f, 0x00, 0x00, 0x9c, 0x2f, 0x00, 0x00, 0x98, 0x2f, 0x00, 0x00,
  0x94, 0x2f, 0x00, 0x00, 0x90, 0x2f, 0x00, 0x00, 0x8c, 0x2f, 0x00, 0x00,
  0x0f, 0x00, 0x00, 0x00, 0x4d, 0x4c, 0x49, 0x52, 0x20, 0x43, 0x6f, 0x6e,
  0x76, 0x65, 0x72, 0x74, 0x65, 0x64, 0x2e, 0x00, 0x00, 0x00, 0x0e, 0x00,
  0x18, 0x00, 0x04, 0x00, 0x08, 0x00, 0x0c, 0x00, 0x10, 0x00, 0x14, 0x00,
  0x0e, 0x00, 0x00, 0x00, 0x14, 0x00, 0x00, 0x00, 0x5c, 0x00, 0x00, 0x00,
  0x60, 0x00, 0x00, 0x00, 0x64, 0x00, 0x00, 0x00, 0x84, 0x00, 0x00, 0x00,
  0x12, 0x00, 0x00, 0x00, 0x04, 0x2f, 0x00, 0x00, 0xa0, 0x2e, 0x00, 0x00,
  0xf8, 0x2d, 0x00, 0x00, 0x98, 0x2d, 0x00, 0x00, 0x30, 0x2d, 0x00, 0x00,
  0xdc, 0x10, 0x00, 0x00, 0xc0, 0x0f, 0x00, 0x00, 0xe4, 0x0d, 0x00, 0x00,
  0xa0, 0x05, 0x00, 0x00, 0x3c, 0x05, 0x00, 0x00, 0xb0, 0x04, 0x00, 0x00,
  0xe8, 0x03, 0x00, 0x00, 0x38, 0x03, 0x00, 0x00, 0xa4, 0x02, 0x00, 0x00,
  0x10, 0x02, 0x00, 0x00, 0x90, 0x01, 0x00, 0x00, 0xfc, 0x00, 0x00, 0x00,
  0x80, 0x00, 0x00, 0x00, 0x01, 0x00, 0x00, 0x00, 0x00, 0x00, 0x00, 0x00,
  0x01, 0x00, 0x00, 0x00, 0x11, 0x00, 0x00, 0x00, 0x08, 0x00, 0x00, 0x00,
  0x1c, 0x04, 0x00, 0x00, 0x58, 0x03, 0x00, 0x00, 0xc8, 0x02, 0x00, 0x00,
  0x24, 0x02, 0x00, 0x00, 0xac, 0x01, 0x00, 0x00, 0x10, 0x01, 0x00, 0x00,
  0x94, 0x00, 0x00, 0x00, 0x10, 0x00, 0x00, 0x00, 0x04, 0x00, 0x00, 0x00,
  0x6d, 0x61, 0x69, 0x6e, 0x00, 0x00, 0x00, 0x00, 0x8e, 0xff, 0xff, 0xff,
  0x00, 0x00, 0x00, 0x09, 0x04, 0x00, 0x00, 0x00, 0x1c, 0x00, 0x00, 0x00,
  0x10, 0x00, 0x00, 0x00, 0x04, 0x00, 0x00, 0x00, 0x4e, 0xd2, 0xff, 0xff,
  0x00, 0x00, 0x80, 0x3f, 0x01, 0x00, 0x00, 0x00, 0x11, 0x00, 0x00, 0x00,
  0x01, 0x00, 0x00, 0x00, 0x10, 0x00, 0x00, 0x00, 0xf6, 0xfb, 0xff, 0xff,
  0x00, 0x00, 0x00, 0x19, 0x01, 0x00, 0x00, 0x00, 0xce, 0xd1, 0xff, 0xff,
  0x10, 0x00, 0x00, 0x00, 0x12, 0x00, 0x00, 0x00, 0x14, 0x00, 0x00, 0x00,
  0x20, 0x00, 0x00, 0x00, 0x02, 0x00, 0x00, 0x00, 0x01, 0x00, 0x00, 0x00,
  0x03, 0x00, 0x00, 0x00, 0x08, 0x00, 0x00, 0x00, 0x49, 0x64, 0x65, 0x6e,
  0x74, 0x69, 0x74, 0x79, 0x00, 0x00, 0x00, 0x00, 0x08, 0xd2, 0xff, 0xff,
  0x00, 0x00, 0x0e, 0x00, 0x18, 0x00, 0x08, 0x00, 0x0c, 0x00, 0x10, 0x00,
  0x07, 0x00, 0x14, 0x00, 0x0e, 0x00, 0x00, 0x00, 0x00, 0x00, 0x00, 0x08,
  0x03, 0x00, 0x00, 0x00, 0x18, 0x00, 0x00, 0x00, 0x0c, 0x00, 0x00, 0x00,
  0x04, 0x00, 0x00, 0x00, 0xdc, 0xd1, 0xff, 0xff, 0x01, 0x00, 0x00, 0x00,
  0x10, 0x00, 0x00, 0x00, 0x03, 0x00, 0x00, 0x00, 0x0f, 0x00, 0x00, 0x00,
  0x05, 0x00, 0x00, 0x00, 0x02, 0x00, 0x00, 0x00, 0x46, 0xd2, 0xff, 0xff,
  0x10, 0x00, 0x00, 0x00, 0x11, 0x00, 0x00, 0x00, 0x14, 0x00, 0x00, 0x00,
  0x30, 0x00, 0x00, 0x00, 0x02, 0x00, 0x00, 0x00, 0x01, 0x00, 0x00, 0x00,
  0x03, 0x00, 0x00, 0x00, 0x1a, 0x00, 0x00, 0x00, 0x73, 0x65, 0x71, 0x75,
  0x65, 0x6e, 0x74, 0x69, 0x61, 0x6c, 0x2f, 0x64, 0x65, 0x6e, 0x73, 0x65,
  0x5f, 0x31, 0x2f, 0x42, 0x69, 0x61, 0x73, 0x41, 0x64, 0x64, 0x00, 0x00,
  0x38, 0xd2, 0xff, 0xff, 0xd6, 0xfd, 0xff, 0xff, 0x00, 0x00, 0x00, 0x08,
  0x03, 0x00, 0x00, 0x00, 0x24, 0x00, 0x00, 0x00, 0x18, 0x00, 0x00, 0x00,
  0x0c, 0x00, 0x00, 0x00, 0x00, 0x00, 0x06, 0x00, 0x08, 0x00, 0x07, 0x00,
  0x06, 0x00, 0x00, 0x00, 0x00, 0x00, 0x00, 0x01, 0x01, 0x00, 0x00, 0x00,
  0x0f, 0x00, 0x00, 0x00, 0x03, 0x00, 0x00, 0x00, 0x0e, 0x00, 0x00, 0x00,
  0x04, 0x00, 0x00, 0x00, 0x01, 0x00, 0x00, 0x00, 0xfe, 0xfc, 0xff, 0xff,
  0x00, 0x00, 0x00, 0x09, 0x01, 0x00, 0x00, 0x00, 0xd6, 0xd2, 0xff, 0xff,
  0x10, 0x00, 0x00, 0x00, 0x10, 0x00, 0x00, 0x00, 0x14, 0x00, 0x00, 0x00,
  0x2c, 0x00, 0x00, 0x00, 0x02, 0x00, 0x00, 0x00, 0x01, 0x00, 0x00, 0x00,
  0x10, 0x00, 0x00, 0x00, 0x15, 0x00, 0x00, 0x00, 0x73, 0x65, 0x71, 0x75,
  0x65, 0x6e, 0x74, 0x69, 0x61, 0x6c, 0x2f, 0x64, 0x65, 0x6e, 0x73, 0x65,
  0x2f, 0x52, 0x65, 0x6c, 0x75, 0x00, 0x00, 0x00, 0x1c, 0xd3, 0xff, 0xff,
  0x00, 0x00, 0x0a, 0x00, 0x10, 0x00, 0x04, 0x00, 0x08, 0x00, 0x0c, 0x00,
  0x0a, 0x00, 0x00, 0x00, 0x02, 0x00, 0x00, 0x00, 0x10, 0x00, 0x00, 0x00,
  0x04, 0x00, 0x00, 0x00, 0x01, 0x00, 0x00, 0x00, 0x0e, 0x00, 0x00, 0x00,
  0x02, 0x00, 0x00, 0x00, 0x0d, 0x00, 0x00, 0x00, 0x03, 0x00, 0x00, 0x00,
  0x7a, 0xfd, 0xff, 0xff, 0x00, 0x00, 0x00, 0x16, 0x01, 0x00, 0x00, 0x00,
  0x52, 0xd3, 0xff, 0xff, 0x10, 0x00, 0x00, 0x00, 0x0f, 0x00, 0x00, 0x00,
  0x14, 0x00, 0x00, 0x00, 0x30, 0x00, 0x00, 0x00, 0x02, 0x00, 0x00, 0x00,
  0x01, 0x00, 0x00, 0x00, 0x70, 0x00, 0x00, 0x00, 0x1a, 0x00, 0x00, 0x00,
  0x73, 0x65, 0x71, 0x75, 0x65, 0x6e, 0x74, 0x69, 0x61, 0x6c, 0x2f, 0x66,
  0x6c, 0x61, 0x74, 0x74, 0x65, 0x6e, 0x2f, 0x52, 0x65, 0x73, 0x68, 0x61,
  0x70, 0x65, 0x00, 0x00, 0x44, 0xd3, 0xff, 0xff, 0xe2, 0xfe, 0xff, 0xff,
  0x00, 0x00, 0x00, 0x05, 0x01, 0x00, 0x00, 0x00, 0x38, 0x00, 0x00, 0x00,
  0x2c, 0x00, 0x00, 0x00, 0x14, 0x00, 0x00, 0x00, 0x00, 0x00, 0x0e, 0x00,
  0x14, 0x00, 0x00, 0x00, 0x10, 0x00, 0x0c, 0x00, 0x08, 0x00, 0x04, 0x00,
  0x0e, 0x00, 0x00, 0x00, 0x03, 0x00, 0x00, 0x00, 0x01, 0x00, 0x00, 0x00,
  0x03, 0x00, 0x00, 0x00, 0x01, 0x00, 0x00, 0x00, 0x01, 0x00, 0x00, 0x00,
  0x0d, 0x00, 0x00, 0x00, 0x01, 0x00, 0x00, 0x00, 0x0c, 0x00, 0x00, 0x00,
  0xe2, 0xd3, 0xff, 0xff, 0x10, 0x00, 0x00, 0x00, 0x0e, 0x00, 0x00, 0x00,
  0x1c, 0x00, 0x00, 0x00, 0x40, 0x00, 0x00, 0x00, 0x04, 0x00, 0x00, 0x00,
  0x01, 0x00, 0x00, 0x00, 0x07, 0x00, 0x00, 0x00, 0x01, 0x00, 0x00, 0x00,
  0x10, 0x00, 0x00, 0x00, 0x22, 0x00, 0x00, 0x00, 0x73, 0x65, 0x71, 0x75,
  0x65, 0x6e, 0x74, 0x69, 0x61, 0x6c, 0x2f, 0x6d, 0x61, 0x78, 0x5f, 0x70,
  0x6f, 0x6f, 0x6c, 0x69, 0x6e, 0x67, 0x32, 0x64, 0x5f, 0x31, 0x2f, 0x4d,
  0x61, 0x78, 0x50, 0x6f, 0x6f, 0x6c, 0x00, 0x00, 0xe4, 0xd3, 0xff, 0xff,
  0xc2, 0xfe, 0xff, 0xff, 0x00, 0x00, 0x00, 0x01, 0x24, 0x00, 0x00, 0x00,
  0x18, 0x00, 0x00, 0x00, 0x04, 0x00, 0x00, 0x00, 0xb4, 0xfe, 0xff, 0xff,
  0x01, 0x00, 0x00, 0x00, 0x01, 0x00, 0x00, 0x00, 0x00, 0x00, 0x00, 0x01,
  0x01, 0x00, 0x00, 0x00, 0x0c, 0x00, 0x00, 0x00, 0x03, 0x00, 0x00, 0x00,
  0x0b, 0x00, 0x00, 0x00, 0x07, 0x00, 0x00, 0x00, 0x09, 0x00, 0x00, 0x00,
  0x72, 0xd4, 0xff, 0xff, 0x10, 0x00, 0x00, 0x00, 0x0d, 0x00, 0x00, 0x00,
  0x1c, 0x00, 0x00, 0x00, 0x2c, 0x00, 0x00, 0x00, 0x04, 0x00, 0x00, 0x00,
  0x01, 0x00, 0x00, 0x00, 0x15, 0x00, 0x00, 0x00, 0x01, 0x00, 0x00, 0x00,
  0x10, 0x00, 0x00, 0x00, 0x0c, 0x00, 0x00, 0x00, 0x74, 0x66, 0x6c, 0x2e,
  0x63, 0x6f, 0x6e, 0x76, 0x5f, 0x32, 0x64, 0x31, 0x00, 0x00, 0x00, 0x00,
  0xb8, 0xd4, 0xff, 0xff, 0x00, 0x00, 0x0e, 0x00, 0x1a, 0x00, 0x08, 0x00,
  0x0c, 0x00, 0x10, 0x00, 0x07, 0x00, 0x14, 0x00, 0x0e, 0x00, 0x00, 0x00,
  0x00, 0x00, 0x00, 0x05, 0x01, 0x00, 0x00, 0x00, 0x3c, 0x00, 0x00, 0x00,
  0x30, 0x00, 0x00, 0x00, 0x14, 0x00, 0x00, 0x00, 0x00, 0x00, 0x0e, 0x00,
  0x18, 0x00, 0x17, 0x00, 0x10, 0x00, 0x0c, 0x00, 0x08, 0x00, 0x04, 0x00,
  0x0e, 0x00, 0x00, 0x00, 0x03, 0x00, 0x00, 0x00, 0x03, 0x00, 0x00, 0x00,
  0x03, 0x00, 0x00, 0x00, 0x03, 0x00, 0x00, 0x00, 0x00, 0x00, 0x00, 0x01,
  0x01, 0x00, 0x00, 0x00, 0x0b, 0x00, 0x00, 0x00, 0x01, 0x00, 0x00, 0x00,
  0x0a, 0x00, 0x00, 0x00, 0x46, 0xff, 0xff, 0xff, 0x00, 0x00, 0x00, 0x11,
  0x01, 0x00, 0x00, 0x00, 0x1e, 0xd5, 0xff, 0xff, 0x10, 0x00, 0x00, 0x00,
  0x0c, 0x00, 0x00, 0x00, 0x1c, 0x00, 0x00, 0x00, 0x40, 0x00, 0x00, 0x00,
  0x04, 0x00, 0x00, 0x00, 0x01, 0x00, 0x00, 0x00, 0x15, 0x00, 0x00, 0x00,
  0x01, 0x00, 0x00, 0x00, 0x08, 0x00, 0x00, 0x00, 0x20, 0x00, 0x00, 0x00,
  0x73, 0x65, 0x71, 0x75, 0x65, 0x6e, 0x74, 0x69, 0x61, 0x6c, 0x2f, 0x6d,
  0x61, 0x78, 0x5f, 0x70, 0x6f, 0x6f, 0x6c, 0x69, 0x6e, 0x67, 0x32, 0x64,
  0x2f, 0x4d, 0x61, 0x78, 0x50, 0x6f, 0x6f, 0x6c, 0x00, 0x00, 0x00, 0x00,
  0x78, 0xd5, 0xff, 0xff, 0x00, 0x00, 0x0e, 0x00, 0x14, 0x00, 0x00, 0x00,
  0x08, 0x00, 0x0c, 0x00, 0x07, 0x00, 0x10, 0x00, 0x0e, 0x00, 0x00, 0x00,
  0x00, 0x00, 0x00, 0x01, 0x30, 0x00, 0x00, 0x00, 0x24, 0x00, 0x00, 0x00,
  0x10, 0x00, 0x00, 0x00, 0x0c, 0x00, 0x10, 0x00, 0x00, 0x00, 0x04, 0x00,
  0x08, 0x00, 0x0f, 0x00, 0x0c, 0x00, 0x00, 0x00, 0x01, 0x00, 0x00, 0x00,
  0x01, 0x00, 0x00, 0x00, 0x00, 0x00, 0x00, 0x01, 0x01, 0x00, 0x00, 0x00,
  0x0a, 0x00, 0x00, 0x00, 0x03, 0x00, 0x00, 0x00, 0x00, 0x00, 0x00, 0x00,
  0x06, 0x00, 0x00, 0x00, 0x08, 0x00, 0x00, 0x00, 0x00, 0x00, 0x0a, 0x00,
  0x0c, 0x00, 0x07, 0x00, 0x00, 0x00, 0x08, 0x00, 0x0a, 0x00, 0x00, 0x00,
  0x00, 0x00, 0x00, 0x03, 0x01, 0x00, 0x00, 0x00, 0xe2, 0xd5, 0xff, 0xff,
  0x10, 0x00, 0x00, 0x00, 0x0b, 0x00, 0x00, 0x00, 0x1c, 0x00, 0x00, 0x00,
  0x28, 0x00, 0x00, 0x00, 0x04, 0x00, 0x00, 0x00, 0x01, 0x00, 0x00, 0x00,
  0x40, 0x00, 0x00, 0x00, 0x03, 0x00, 0x00, 0x00, 0x08, 0x00, 0x00, 0x00,
  0x0b, 0x00, 0x00, 0x00, 0x74, 0x66, 0x6c, 0x2e, 0x63, 0x6f, 0x6e, 0x76,
  0x5f, 0x32, 0x64, 0x00, 0xcc, 0xd5, 0xff, 0xff, 0xc2, 0xd6, 0xff, 0xff,
  0x04, 0x00, 0x00, 0x00, 0x40, 0x00, 0x00, 0x00, 0xdc, 0xfc, 0x91, 0x40,
  0x98, 0xb1, 0x11, 0xbe, 0x98, 0xc5, 0x04, 0xc0, 0x01, 0x90, 0x7f, 0xbf,
  0xed, 0x31, 0xcd, 0x3f, 0xac, 0x27, 0x16, 0xc0, 0x66, 0x48, 0x04, 0x3f,
  0xb0, 0x77, 0xcd, 0x3d, 0x00, 0x4a, 0xaa, 0x40, 0x5c, 0x93, 0x30, 0xbf,
  0x53, 0x8d, 0x04, 0x3f, 0x57, 0x7e, 0x07, 0xbc, 0xb7, 0x9d, 0xef, 0xbf,
  0x6c, 0xc2, 0x4a, 0xbf, 0x89, 0xb4, 0x50, 0xbf, 0x67, 0x02, 0x31, 0xc0,
  0x6a, 0xd6, 0xff, 0xff, 0x10, 0x00, 0x00, 0x00, 0x0a, 0x00, 0x00, 0x00,
  0x10, 0x00, 0x00, 0x00, 0x20, 0x00, 0x00, 0x00, 0x01, 0x00, 0x00, 0x00,
  0x10, 0x00, 0x00, 0x00, 0x0d, 0x00, 0x00, 0x00, 0x73, 0x74, 0x64, 0x2e,
  0x63, 0x6f, 0x6e, 0x73, 0x74, 0x61, 0x6e, 0x74, 0x31, 0x00, 0x00, 0x00,
  0x4c, 0xd6, 0xff, 0xff, 0x42, 0xd7, 0xff, 0xff, 0x04, 0x00, 0x00, 0x00,
  0x20, 0x00, 0x00, 0x00, 0xdc, 0xa1, 0xc2, 0xbf, 0xd6, 0x1d, 0x3a, 0xc0,
  0xde, 0x33, 0x38, 0xc0, 0xf1, 0x0a, 0xed, 0xbe, 0xa4, 0x32, 0xce, 0xbc,
  0x21, 0xf2, 0xb4, 0xbe, 0x54, 0xbe, 0x3a, 0xc0, 0xce, 0xca, 0x25, 0xc0,
  0xca, 0xd6, 0xff, 0xff, 0x10, 0x00, 0x00, 0x00, 0x09, 0x00, 0x00, 0x00,
  0x10, 0x00, 0x00, 0x00, 0x20, 0x00, 0x00, 0x00, 0x01, 0x00, 0x00, 0x00,
  0x08, 0x00, 0x00, 0x00, 0x0c, 0x00, 0x00, 0x00, 0x73, 0x74, 0x64, 0x2e,
  0x63, 0x6f, 0x6e, 0x73, 0x74, 0x61, 0x6e, 0x74, 0x00, 0x00, 0x00, 0x00,
  0xac, 0xd6, 0xff, 0xff, 0xa2, 0xd7, 0xff, 0xff, 0x04, 0x00, 0x00, 0x00,
  0x00, 0x08, 0x00, 0x00, 0x02, 0xd5, 0xc2, 0x3c, 0x3a, 0x7c, 0x6a, 0xbe,
  0x7d, 0x0f, 0xe0, 0xbd, 0x6a, 0x76, 0x99, 0xbe, 0x79, 0xc5, 0x05, 0xbe,
  0x69, 0x98, 0x0a, 0xbd, 0xf4, 0x3b, 0x89, 0x3e, 0x17, 0x54, 0xd3, 0xbd,
  0xe5, 0xa2, 0x0b, 0xbe, 0xc9, 0x10, 0xaf, 0xbc, 0xcb, 0x59, 0x0d, 0x3d,
  0x51, 0xab, 0xdb, 0xbd, 0x55, 0x18, 0x12, 0xbe, 0xbe, 0x4f, 0x1f, 0x3e,
  0xa2, 0x7c, 0xae, 0xbd, 0xc9, 0xa4, 0xd8, 0xbd, 0x46, 0x26, 0x1f, 0xbe,
  0xc7, 0xa4, 0x22, 0xbc, 0xce, 0xe6, 0xe7, 0x3d, 0x9f, 0xde, 0xc1, 0xbd,
  0xb3, 0x14, 0x17, 0xbe, 0xcf, 0xf2, 0x5d, 0xbe, 0x6e, 0xc5, 0xc3, 0xbd,
  0x57, 0x23, 0xac, 0xbc, 0xb7, 0xf3, 0xe4, 0xbe, 0xaa, 0x2b, 0x02, 0x3e,
  0x5e, 0x67, 0x9e, 0xbd, 0x63, 0x15, 0x27, 0x3d, 0x6f, 0xaf, 0xf0, 0xbd,
  0x54, 0xa2, 0xa8, 0xbe, 0x90, 0x14, 0x0e, 0xbe, 0x53, 0xfb, 0x66, 0x3c,
  0xb6, 0x91, 0x7e, 0xbd, 0x82, 0x9e, 0x09, 0xbe, 0x31, 0x2f, 0xdc, 0xbe,
  0xd0, 0x01, 0x7b, 0xbd, 0xb4, 0x46, 0x79, 0x3c, 0x7c, 0xe5, 0xc1, 0xbd,
  0x85, 0x69, 0xa5, 0xbe, 0x8d, 0x83, 0x1c, 0xbe, 0x36, 0x9a, 0x3c, 0xbe,
  0x3a, 0xac, 0x29, 0xbe, 0x84, 0x41, 0xc0, 0xbe, 0xe2, 0x0b, 0xdb, 0xbd,
  0x1b, 0xbd, 0x88, 0x3d, 0x4f, 0xd0, 0xdc, 0xbd, 0xa8, 0x67, 0x93, 0xbe,
  0x38, 0x8c, 0x62, 0xbe, 0x38, 0xd4, 0x37, 0xbd, 0xe6, 0xdd, 0xc3, 0xbd,
  0x12, 0x7d, 0x32, 0x3e, 0x2c, 0xc0, 0xda, 0xbd, 0x3a, 0x4e, 0xd4, 0xbd,
  0xba, 0x3a, 0x0a, 0xbe, 0xe2, 0xa9, 0xf5, 0xbd, 0x73, 0xa3, 0x46, 0xbe,
  0x24, 0xf8, 0x17, 0xbe, 0xce, 0x5d, 0x3c, 0x3d, 0xb2, 0xf3, 0xf0, 0x3e,
  0x7c, 0xac, 0xe5, 0x3e, 0xf3, 0x36, 0xbe, 0xbd, 0xb9, 0xc0, 0xf8, 0xbc,
  0x72, 0x2b, 0x12, 0xbd, 0xb9, 0x1b, 0x68, 0x3e, 0xcb, 0x12, 0xe3, 0x3e,
  0x70, 0xa6, 0xc1, 0xbe, 0x9f, 0x83, 0x96, 0x3e, 0x0d, 0xbd, 0xde, 0xbe,
  0x36, 0xe9, 0xd6, 0xbd, 0x40, 0x1e, 0xc4, 0x3d, 0x5f, 0x68, 0x49, 0x3e,
  0x5f, 0xb4, 0x91, 0xbe, 0x7e, 0x3f, 0xe3, 0xbd, 0x9d, 0x61, 0x84, 0xbe,
  0xff, 0x09, 0x1a, 0x3c, 0xa3, 0xa4, 0x15, 0xbe, 0xe3, 0x27, 0x22, 0xbe,
  0xc2, 0xa2, 0xed, 0xbe, 0xb0, 0xa3, 0xee, 0xbd, 0xba, 0xd3, 0x68, 0xbe,
  0x58, 0x92, 0x53, 0xbe, 0xe0, 0x14, 0x90, 0x3e, 0x8c, 0x39, 0x53, 0x3d,
  0x15, 0x87, 0x77, 0x3d, 0xf1, 0x9f, 0xfe, 0xbc, 0xf7, 0xeb, 0x8f, 0xbe,
  0x1c, 0x00, 0x02, 0xbe, 0xe0, 0x25, 0xbb, 0xbd, 0x92, 0x13, 0x4f, 0xbe,
  0xdc, 0xaf, 0xa8, 0x3e, 0xab, 0x28, 0x48, 0xbe, 0x20, 0x3a, 0xb4, 0x3d,
  0x06, 0xbb, 0x2b, 0x3e, 0xb4, 0xba, 0xf6, 0xbc, 0xc1, 0x9c, 0x2c, 0xbe,
  0x8a, 0xe2, 0xa0, 0x39, 0x9f, 0x9c, 0xfd, 0xbd, 0x19, 0x82, 0xf3, 0xbd,
  0x34, 0xa1, 0x35, 0xbe, 0x54, 0xd7, 0x0b, 0xbf, 0xa0, 0x3d, 0x44, 0x3d,
  0x04, 0xfa, 0x54, 0x3e, 0x61, 0xc0, 0x07, 0xbe, 0xc0, 0x85, 0x0a, 0xbf,
  0xbe, 0xb9, 0xb9, 0xbd, 0xe5, 0xac, 0x92, 0xbe, 0x08, 0x3d, 0x3c, 0xbe,
  0xad, 0xc5, 0x10, 0xbf, 0xda, 0x75, 0xce, 0xbd, 0xaa, 0x4e, 0x00, 0xbe,
  0xde, 0x66, 0x10, 0xbe, 0x22, 0xf4, 0x56, 0xbf, 0x23, 0xb9, 0x80, 0xbd,
  0x20, 0x5e, 0xb1, 0xbe, 0x47, 0xa7, 0x58, 0xbe, 0x62, 0xed, 0x86, 0xbe,
  0x2b, 0x86, 0x54, 0x3a, 0xc8, 0x00, 0x1a, 0xbd, 0xab, 0x7b, 0x0d, 0xbe,
  0x7e, 0x3f, 0xde, 0x3c, 0x6d, 0x3c, 0x76, 0x3e, 0xc8, 0x0d, 0xbe, 0xbd,
  0x9e, 0xca, 0xdc, 0x3d, 0x0d, 0x26, 0xa3, 0xbe, 0x26, 0x7e, 0xda, 0xbc,
  0x32, 0x2b, 0x78, 0x3e, 0x3d, 0x30, 0xad, 0x3e, 0x2f, 0x27, 0xe6, 0x3a,
  0x0a, 0xdc, 0xef, 0x3c, 0xf1, 0x19, 0x6a, 0xbd, 0xdd, 0x21, 0x1c, 0x3e,
  0xca, 0x4c, 0x76, 0xbc, 0xfc, 0xa4, 0x1e, 0x3a, 0xe3, 0xc7, 0xaa, 0xbb,
  0x2e, 0xdd, 0x8e, 0x3d, 0x5d, 0x3b, 0x19, 0xbd, 0x9d, 0xc8, 0xb0, 0xbd,
  0x78, 0x42, 0xb7, 0xbd, 0xdf, 0xf3, 0x86, 0x3c, 0xa0, 0xd0, 0xe3, 0x3e,
  0xf3, 0x28, 0x6e, 0xbd, 0x4b, 0xb1, 0x13, 0xbe, 0x45, 0x74, 0xb9, 0x3c,
  0xa7, 0x13, 0x9f, 0x3e, 0xd8, 0x07, 0xf8, 0x3d, 0xcc, 0x88, 0xb4, 0xbd,
  0x38, 0xbc, 0xb3, 0xbc, 0xb3, 0xc4, 0xaa, 0xbd, 0x1d, 0x1b, 0x58, 0x3e,
  0x1d, 0x89, 0x01, 0x3e, 0xe8, 0x7d, 0x6c, 0x3b, 0xe0, 0x57, 0x00, 0xbe,
  0x8b, 0x84, 0xf0, 0x3d, 0x94, 0x38, 0x27, 0xbd, 0xe7, 0xd1, 0x75, 0xbd,
  0x9b, 0x88, 0x7d, 0xbd, 0x63, 0xee, 0x48, 0xbd, 0xf8, 0xea, 0x71, 0xbc,
  0xf0, 0x8f, 0x05, 0x39, 0x12, 0xe0, 0x3a, 0xbd, 0x73, 0x2b, 0xa1, 0xbe,
  0x41, 0x00, 0x23, 0xbd, 0x51, 0x1d, 0x33, 0xbe, 0xa4, 0x04, 0x15, 0xbe,
  0xf5, 0xc3, 0xac, 0xbd, 0x59, 0xbc, 0xb0, 0xbe, 0xbb, 0x31, 0x06, 0xbe,
  0x50, 0xee, 0x8b, 0xbe, 0xc6, 0x73, 0x85, 0xbe, 0x59, 0xe3, 0x69, 0x3d,
  0x83, 0x90, 0xc6, 0xbd, 0x4d, 0x1a, 0xa3, 0x3b, 0xae, 0x5c, 0xde, 0xbd,
  0xf9, 0x6b, 0x43, 0xbe, 0x0e, 0x45, 0x1a, 0xbe, 0x93, 0xa8, 0x57, 0x3d,
  0xf6, 0x98, 0xd4, 0xbd, 0xf3, 0xd1, 0x0a, 0x3e, 0x17, 0xc5, 0x00, 0xbe,
  0xc1, 0x63, 0x91, 0xbc, 0x67, 0x18, 0xf6, 0x3d, 0x2a, 0x75, 0x80, 0x3e,
  0x4e, 0x74, 0xc5, 0xbd, 0x77, 0x0c, 0x0a, 0xbc, 0xc3, 0x4c, 0x0a, 0x3f,
  0x62, 0xd0, 0x1f, 0x3c, 0x86, 0x9b, 0x3f, 0x3e, 0x53, 0x1a, 0x0e, 0xbe,
  0x7c, 0xbc, 0x02, 0x3d, 0xe5, 0x22, 0x9e, 0x3e, 0x66, 0x43, 0xa4, 0x3d,
  0xcd, 0xca, 0xf9, 0x3d, 0x76, 0x2f, 0x0d, 0x3e, 0x69, 0xed, 0x35, 0xbb,
  0x5f, 0x3e, 0x1d, 0xbe, 0x64, 0x35, 0xa3, 0xbe, 0xce, 0xae, 0x86, 0x3e,
  0x89, 0x4d, 0xec, 0x3c, 0xfa, 0x9f, 0x26, 0xbd, 0x4a, 0x5e, 0xed, 0xbd,
  0x8a, 0x2c, 0x2b, 0xbe, 0xca, 0x87, 0x70, 0xbe, 0x84, 0xa9, 0x26, 0xbe,
  0x66, 0xac, 0x25, 0x3e, 0x2c, 0x3e, 0x25, 0x3d, 0xdb, 0x6b, 0x2b, 0xbe,
  0xf5, 0x50, 0x62, 0xbe, 0x2f, 0x76, 0xb1, 0x3d, 0x83, 0xc8, 0xa9, 0x3c,
  0xcb, 0xb1, 0x4b, 0x3d, 0x11, 0x88, 0x9c, 0xbd, 0xef, 0x78, 0xdd, 0xbc,
  0xd1, 0x72, 0x6f, 0x3e, 0xc8, 0x9f, 0xcf, 0xbd, 0xd0, 0xc1, 0xb4, 0x3d,
  0x2b, 0xdb, 0xd6, 0xbd, 0x45, 0x2a, 0xe7, 0xbe, 0x30, 0x4d, 0xa7, 0x3c,
  0x36, 0xb8, 0x26, 0xbf, 0x8a, 0x99, 0x2a, 0x3e, 0xb4, 0xbb, 0x15, 0xbe,
  0xb5, 0x4e, 0x71, 0xbe, 0x2c, 0xda, 0x79, 0xbe, 0x33, 0x4c, 0x6c, 0x3e,
  0xa5, 0xc5, 0x5e, 0x3c, 0x2f, 0x66, 0xdf, 0xbd, 0xff, 0xf4, 0x41, 0xbe,
  0xfe, 0x81, 0x46, 0x3c, 0x67, 0x67, 0xbd, 0xbe, 0x28, 0x88, 0x87, 0xbe,
  0x90, 0x93, 0x6b, 0xbe, 0xa2, 0x97, 0x52, 0xbe, 0x1e, 0x30, 0xe2, 0x3d,
  0x80, 0x57, 0x14, 0xbe, 0x91, 0xb9, 0x93, 0xbd, 0x14, 0x6b, 0x93, 0x3c,
  0xee, 0x7a, 0x99, 0xbe, 0x62, 0xef, 0x8b, 0x3d, 0x6e, 0xbf, 0x33, 0x3e,
  0x3f, 0xd0, 0xb8, 0xbd, 0x82, 0x87, 0x27, 0xbe, 0x7f, 0x61, 0x55, 0xbe,
  0xbd, 0x9b, 0x9a, 0xbc, 0x18, 0x4a, 0x27, 0x3d, 0xbd, 0x42, 0x17, 0x3e,
  0xf1, 0xc4, 0x18, 0xbe, 0x41, 0x60, 0x23, 0x3d, 0xd4, 0x0c, 0x52, 0xbe,
  0x9d, 0x3d, 0x6b, 0xbd, 0xba, 0xc9, 0xf6, 0x3d, 0x2f, 0x23, 0xcd, 0xbd,
  0xb4, 0xa4, 0x68, 0x3e, 0x85, 0x89, 0x13, 0xbd, 0x90, 0xe9, 0x01, 0x3d,
  0x25, 0x26, 0x7c, 0x3d, 0x9e, 0x07, 0xd4, 0xbc, 0xaf, 0x4c, 0x62, 0xbf,
  0x0c, 0x8b, 0x06, 0x3c, 0xad, 0x35, 0x9e, 0xbc, 0xeb, 0x92, 0x28, 0x3d,
  0x53, 0xb1, 0xe7, 0xbe, 0x72, 0xe8, 0x32, 0xbe, 0xdb, 0x6f, 0x2a, 0xbe,
  0x9d, 0x77, 0x7e, 0x3e, 0x3d, 0x0c, 0xb4, 0xbd, 0x68, 0xdb, 0x44, 0x3e,
  0xec, 0xa3, 0x1c, 0xbe, 0x84, 0x9c, 0x1b, 0x3e, 0xf9, 0x2c, 0xf5, 0xbd,
  0xab, 0x91, 0xea, 0x3d, 0xfc, 0xd3, 0x4d, 0xbe, 0x94, 0x8a, 0x11, 0x3e,
  0xb8, 0xc0, 0xf2, 0x3c, 0x91, 0xf0, 0xa3, 0xbe, 0xeb, 0xa9, 0x73, 0xbe,
  0x8d, 0x72, 0x36, 0xbe, 0x56, 0x39, 0x2b, 0xbd, 0xfc, 0x43, 0x0b, 0xbf,
  0x4d, 0x47, 0x96, 0xbd, 0x67, 0xe4, 0x5b, 0xbe, 0x55, 0x11, 0x2e, 0xbe,
  0xc8, 0xbc, 0x0e, 0xbf, 0x9c, 0xef, 0x44, 0xbe, 0x52, 0xc2, 0xe5, 0xbe,
  0x7b, 0x28, 0x12, 0xbe, 0x65, 0x97, 0x05, 0x3d, 0xd0, 0x01, 0x4a, 0xbe,
  0xa1, 0x66, 0x9e, 0xbe, 0xd8, 0x90, 0x7d, 0xbd, 0x0d, 0xef, 0xce, 0xbd,
  0xa3, 0x59, 0xdc, 0xbe, 0x64, 0xdd, 0x65, 0xbe, 0x4e, 0x3a, 0x9e, 0xbc,
  0x65, 0xb4, 0x00, 0xbd, 0x74, 0xe8, 0x1f, 0xbe, 0x47, 0x95, 0xa3, 0xbe,
  0x0f, 0xe0, 0xaf, 0xbc, 0x96, 0x19, 0xcd, 0xbd, 0xc4, 0xac, 0x72, 0x3c,
  0xe4, 0xca, 0x0c, 0xbe, 0x4d, 0x1d, 0x36, 0xbe, 0xab, 0xdf, 0x8f, 0xbf,
  0x96, 0x87, 0x65, 0xbe, 0xbc, 0x2f, 0x0a, 0xbf, 0xaf, 0x7b, 0x88, 0x3e,
  0x6f, 0x69, 0xe9, 0x3d, 0x83, 0xbb, 0x86, 0x3e, 0x6b, 0xd3, 0x23, 0x3e,
  0xe5, 0xe0, 0x21, 0xbe, 0x93, 0x54, 0x9e, 0x3d, 0xca, 0xaf, 0x7c, 0xbb,
  0x06, 0xb5, 0x71, 0xbd, 0xee, 0x85, 0x07, 0xbf, 0xea, 0x3b, 0x86, 0x3e,
  0xb7, 0x2d, 0xf9, 0xbc, 0x48, 0x83, 0x25, 0x3e, 0x2c, 0x32, 0x14, 0xbe,
  0xac, 0xd1, 0x08, 0xbe, 0xd9, 0xc2, 0xda, 0xbd, 0xa1, 0x5f, 0x6a, 0x3e,
  0xeb, 0x69, 0xeb, 0x3d, 0x73, 0x97, 0x74, 0xbd, 0x70, 0x68, 0xcb, 0x3e,
  0xe4, 0xe8, 0x8a, 0x3e, 0xd7, 0x37, 0xba, 0xbe, 0x2d, 0xd2, 0x71, 0x3d,
  0x9e, 0x99, 0x52, 0xbe, 0x0c, 0xa3, 0x45, 0x3e, 0x9b, 0x65, 0x12, 0x3e,
  0x59, 0x15, 0x61, 0xbe, 0x6a, 0x26, 0x8e, 0xbe, 0xbb, 0xc6, 0x86, 0x3e,
  0x81, 0xf6, 0xc9, 0xbc, 0x06, 0xe9, 0xe4, 0x3d, 0xd8, 0xeb, 0x47, 0xbe,
  0x5b, 0x3f, 0x2a, 0x3e, 0x43, 0x07, 0xc3, 0x3d, 0x1a, 0xea, 0x25, 0xbe,
  0x81, 0x81, 0x6a, 0xbd, 0x80, 0xc2, 0x06, 0xbc, 0x6a, 0xff, 0x90, 0x3d,
  0xc8, 0x62, 0xde, 0x3b, 0xff, 0x7e, 0x1a, 0xbe, 0x1d, 0xef, 0x9f, 0xba,
  0x62, 0x44, 0x82, 0x3e, 0x98, 0x9a, 0x23, 0xbe, 0xbc, 0xa0, 0x1d, 0x3d,
  0x64, 0x15, 0xf4, 0x3b, 0x66, 0xd3, 0x01, 0xbe, 0x3a, 0x05, 0x37, 0xbe,
  0xae, 0x4f, 0x7c, 0xbd, 0x22, 0x5d, 0x3b, 0xbe, 0xb1, 0x2a, 0x53, 0xbe,
  0x22, 0x26, 0x34, 0xbe, 0xe2, 0x2e, 0xc9, 0x3b, 0xa6, 0x94, 0x8e, 0xbe,
  0x4c, 0xb3, 0x32, 0xbe, 0x1f, 0x43, 0x90, 0xbe, 0xec, 0x87, 0x91, 0x3d,
  0x3a, 0x50, 0xe6, 0xbe, 0x5b, 0xd5, 0x46, 0x3b, 0x17, 0xfd, 0xf2, 0x3d,
  0xb0, 0x40, 0xfd, 0xbd, 0x5d, 0x78, 0x97, 0xbe, 0x47, 0x9b, 0xc9, 0x3d,
  0x54, 0x8b, 0x96, 0x3b, 0x96, 0x3c, 0x83, 0xbd, 0xa4, 0x93, 0x34, 0xbe,
  0x4f, 0xf6, 0x78, 0x3e, 0x27, 0x24, 0xc4, 0x3e, 0xfd, 0xb3, 0xa6, 0x3e,
  0x30, 0x61, 0x04, 0xbe, 0xed, 0xbe, 0xe4, 0xbd, 0x0a, 0x15, 0x87, 0x3d,
  0x62, 0x35, 0x4a, 0x3e, 0x1c, 0x64, 0xa6, 0xbd, 0x60, 0x81, 0x95, 0x3d,
  0x44, 0x86, 0x0b, 0xbe, 0xc2, 0x30, 0x36, 0x3e, 0x43, 0x4c, 0xd2, 0xbe,
  0xc7, 0x28, 0x0f, 0xbe, 0x30, 0x2f, 0x77, 0xbd, 0xfd, 0x8b, 0xca, 0x3d,
  0x59, 0x4d, 0x4e, 0xbe, 0x73, 0x2e, 0x37, 0xbe, 0xfb, 0xed, 0x8a, 0xbd,
  0x46, 0x0c, 0xa6, 0xbe, 0x0d, 0x22, 0x3e, 0xbe, 0xa8, 0x84, 0x95, 0x3d,
  0x0d, 0xc4, 0x10, 0xbe, 0xf9, 0xcc, 0x98, 0xbc, 0x3b, 0x40, 0x93, 0x3e,
  0x7a, 0x1b, 0x37, 0x3e, 0xde, 0x0b, 0xe1, 0xbd, 0x15, 0x4b, 0xfe, 0x3c,
  0xe2, 0x29, 0xbc, 0xbe, 0x5f, 0xe6, 0x0b, 0xbd, 0x72, 0x3a, 0x5b, 0x3b,
  0xea, 0xbb, 0x8b, 0xbd, 0x66, 0x84, 0xfa, 0x3d, 0x0c, 0xcd, 0xe3, 0x3d,
  0x63, 0xd6, 0x4e, 0xbe, 0x2e, 0x1a, 0x3b, 0x3c, 0x15, 0xe0, 0xab, 0xbe,
  0xdc, 0x0f, 0x25, 0xbe, 0x1b, 0xeb, 0xda, 0x3e, 0x60, 0x59, 0xce, 0x3a,
  0x8b, 0x81, 0xcf, 0xbe, 0x26, 0x6a, 0xe6, 0xbd, 0x86, 0x92, 0xdb, 0x3d,
  0xb7, 0x6c, 0x89, 0x3e, 0x97, 0x4c, 0x4b, 0x3e, 0x78, 0xa9, 0x6a, 0xbe,
  0x4e, 0xc5, 0xe2, 0xbe, 0xb2, 0x79, 0x49, 0xbd, 0x57, 0xdd, 0x28, 0x3e,
  0xfc, 0xf9, 0x57, 0xbe, 0x3a, 0x30, 0x19, 0xbe, 0x7e, 0xb7, 0x83, 0xbe,
  0x69, 0xba, 0x1f, 0xbb, 0x55, 0xd5, 0xf0, 0xbc, 0x56, 0xfe, 0x58, 0xbe,
  0x89, 0xd8, 0xdd, 0xbe, 0x5b, 0xfa, 0x8a, 0xbc, 0x48, 0xaa, 0xb1, 0xbe,
  0xec, 0xf9, 0x46, 0x3d, 0xd4, 0xcd, 0x78, 0x3e, 0x63, 0xfd, 0x76, 0x3d,
  0x5c, 0x7c, 0x48, 0xbf, 0xb4, 0x25, 0x89, 0xbf, 0x43, 0x3a, 0xd2, 0xbe,
  0x07, 0x8e, 0x2e, 0xbe, 0x39, 0x06, 0x07, 0x3c, 0x22, 0xe8, 0xde, 0x3c,
  0x2f, 0xc5, 0xbc, 0x3e, 0x76, 0x31, 0x97, 0x3d, 0x72, 0x95, 0x49, 0xbe,
  0xcd, 0x5b, 0x5d, 0x3d, 0xf0, 0xdd, 0x94, 0x3a, 0x2c, 0x0a, 0x34, 0x3e,
  0x6a, 0x99, 0x86, 0x3c, 0x12, 0x5b, 0x58, 0xbd, 0x2a, 0xe9, 0xe4, 0xbe,
  0x7f, 0x8e, 0x69, 0xbd, 0xb5, 0xe2, 0x71, 0x3e, 0x0a, 0x3e, 0x9e, 0x3e,
  0x4a, 0x70, 0x29, 0xbe, 0xaf, 0xc3, 0x24, 0x3d, 0x11, 0xe7, 0x0a, 0x3e,
  0x72, 0x2c, 0x0d, 0xbe, 0x06, 0x3e, 0x8c, 0x3e, 0x19, 0xda, 0x9e, 0xbd,
  0x6f, 0x27, 0x41, 0xbd, 0x2d, 0xa0, 0xd2, 0x3c, 0xc7, 0x99, 0x09, 0x3f,
  0xae, 0x59, 0x55, 0x3b, 0xa0, 0xa7, 0x7d, 0xbc, 0x88, 0x99, 0x6d, 0xbe,
  0x31, 0x81, 0x08, 0xbe, 0xe0, 0x04, 0x9e, 0xbd, 0x9a, 0xba, 0x2a, 0xbe,
  0x77, 0xcd, 0x19, 0xbe, 0x3d, 0xf7, 0x69, 0xbd, 0xbd, 0xe7, 0x92, 0x3d,
  0x45, 0x77, 0x9a, 0xbe, 0x37, 0xb0, 0xbc, 0xbd, 0xce, 0xa1, 0xf1, 0xbd,
  0xda, 0xc4, 0xa4, 0xbd, 0xb0, 0xb1, 0x80, 0xbd, 0xf3, 0x12, 0x79, 0xbe,
  0x56, 0x1d, 0x11, 0xbe, 0x83, 0xcd, 0x8e, 0x3d, 0x0c, 0x0f, 0x3c, 0xbe,
  0x2d, 0xda, 0x73, 0x3e, 0x81, 0xc7, 0x7b, 0xbe, 0x75, 0x11, 0xbc, 0xbb,
  0x15, 0x71, 0xf8, 0x3d, 0xe6, 0xa7, 0x56, 0xbe, 0x0a, 0xc1, 0x32, 0xbe,
  0x40, 0x40, 0xee, 0x3d, 0x1a, 0xcd, 0xea, 0x3d, 0xb0, 0xda, 0xbf, 0xbd,
  0x47, 0x55, 0x94, 0xbc, 0x02, 0x4a, 0x0e, 0xb9, 0x2c, 0x18, 0x0c, 0xbd,
  0x0a, 0xf8, 0x0c, 0x3e, 0x7e, 0x5d, 0xb8, 0x3e, 0x4b, 0xca, 0x2d, 0x3f,
  0xc5, 0x56, 0x1c, 0xbd, 0xf5, 0x1e, 0xff, 0xbd, 0x82, 0x24, 0x65, 0xbd,
  0xca, 0x0d, 0x9b, 0xbd, 0x9c, 0xe0, 0x5f, 0xbd, 0x17, 0x6f, 0xed, 0xbd,
  0x95, 0x8a, 0x40, 0xbd, 0x43, 0xe2, 0xff, 0xbd, 0xa8, 0x20, 0x0b, 0xbe,
  0x09, 0x01, 0x07, 0x3d, 0x35, 0x27, 0x82, 0xbd, 0xe4, 0x6d, 0xa0, 0xbd,
  0x6a, 0x64, 0x8e, 0xbd, 0xab, 0xe2, 0x63, 0xbe, 0xf9, 0x1f, 0xa1, 0xbd,
  0x2d, 0x0f, 0x6d, 0xbe, 0xf6, 0x87, 0x69, 0xbe, 0xda, 0x76, 0x76, 0x3e,
  0x70, 0xa4, 0x2a, 0xbd, 0xed, 0xc3, 0x1c, 0xbe, 0x1e, 0x09, 0xc7, 0xbd,
  0x83, 0x32, 0x50, 0xbe, 0xa5, 0x0d, 0x94, 0xbd, 0x80, 0xfe, 0xfc, 0xbd,
  0x0a, 0xdf, 0xff, 0xff, 0x10, 0x00, 0x00, 0x00, 0x08, 0x00, 0x00, 0x00,
  0x1c, 0x00, 0x00, 0x00, 0x38, 0x00, 0x00, 0x00, 0x04, 0x00, 0x00, 0x00,
  0x10, 0x00, 0x00, 0x00, 0x04, 0x00, 0x00, 0x00, 0x01, 0x00, 0x00, 0x00,
  0x08, 0x00, 0x00, 0x00, 0x1a, 0x00, 0x00, 0x00, 0x73, 0x65, 0x71, 0x75,
  0x65, 0x6e, 0x74, 0x69, 0x61, 0x6c, 0x2f, 0x63, 0x6f, 0x6e, 0x76, 0x32,
  0x64, 0x5f, 0x31, 0x2f, 0x43, 0x6f, 0x6e, 0x76, 0x32, 0x44, 0x00, 0x00,
  0x04, 0xdf, 0xff, 0xff, 0xfa, 0xdf, 0xff, 0xff, 0x04, 0x00, 0x00, 0x00,
  0x80, 0x01, 0x00, 0x00, 0x4c, 0x4e, 0x40, 0xbd, 0xe9, 0xb7, 0x88, 0x3d,
  0xee, 0x58, 0xab, 0xbe, 0x66, 0x0e, 0x8b, 0x3e, 0xf1, 0xf2, 0x34, 0x3e,
  0x12, 0xfd, 0x0b, 0x3b, 0xa3, 0x65, 0xcf, 0xbd, 0x55, 0xed, 0x58, 0xbe,
  0x88, 0x24, 0x5a, 0x3e, 0xc2, 0xc3, 0x19, 0xbe, 0xff, 0x49, 0x3a, 0xbe,
  0x71, 0x0c, 0x71, 0x3d, 0x02, 0x05, 0xc6, 0xbd, 0x10, 0xe6, 0xef, 0x3d,
  0xcb, 0x1f, 0xe2, 0xbd, 0x04, 0x1a, 0xc9, 0x3d, 0x81, 0xe8, 0xfb, 0xba,
  0xd5, 0x8b, 0x1b, 0x3d, 0x09, 0x19, 0xf2, 0x3d, 0xed, 0x13, 0x12, 0xbd,
  0xed, 0xd0, 0xbf, 0x3d, 0x60, 0x2a, 0x53, 0x3e, 0x11, 0x57, 0x58, 0xbd,
  0x74, 0x58, 0x22, 0x3e, 0x26, 0x17, 0xcf, 0xbb, 0xc6, 0xae, 0xc2, 0xbe,
  0xd3, 0xf6, 0xf5, 0xbd, 0xbc, 0xa1, 0x02, 0xbd, 0xcf, 0xf4, 0x16, 0xbe,
  0xf7, 0x4c, 0x8f, 0xbe, 0xfc, 0x42, 0xf6, 0x3b, 0x3d, 0x78, 0xd4, 0x3e,
  0xbd, 0x7b, 0x9e, 0x3e, 0x49, 0x94, 0xb1, 0x3b, 0x21, 0xec, 0x01, 0x3e,
  0x62, 0xf3, 0x82, 0x3e, 0xc1, 0x9e, 0x1f, 0x3d, 0x14, 0x11, 0x62, 0xbe,
  0xba, 0x19, 0x60, 0xbe, 0xc6, 0xed, 0xc2, 0x3e, 0xab, 0xc3, 0x9b, 0x3e,
  0x3e, 0xa8, 0x1b, 0x3d, 0xfc, 0xf0, 0x0f, 0x3d, 0x46, 0x2c, 0xb4, 0xbb,
  0xa7, 0xc3, 0x84, 0x3e, 0xc0, 0x76, 0xa5, 0xbd, 0xb8, 0x00, 0xd0, 0x3d,
  0x29, 0x7f, 0xcd, 0xbd, 0xf7, 0xcf, 0xd0, 0x3d, 0x44, 0x83, 0x68, 0x3e,
  0xf8, 0x48, 0x8a, 0x3e, 0x84, 0xfc, 0x2c, 0x3e, 0x01, 0x00, 0x3f, 0xbe,
  0xd9, 0xc0, 0x9a, 0x3c, 0x06, 0x8c, 0x50, 0xbe, 0x90, 0x53, 0x02, 0x3b,
  0xd1, 0xcd, 0x0c, 0xbe, 0x4b, 0xbe, 0x1b, 0xbe, 0xe5, 0x0b, 0xc1, 0x3d,
  0xd9, 0xe8, 0xc6, 0xbe, 0x0c, 0x7a, 0x96, 0x3e, 0x83, 0x53, 0x2c, 0x3e,
  0x71, 0x14, 0x1e, 0x3e, 0xfd, 0x62, 0x2d, 0x3e, 0x92, 0x93, 0x09, 0x3e,
  0x8e, 0xf6, 0x3c, 0xbd, 0xee, 0x60, 0x6b, 0xbe, 0xa4, 0x5d, 0x64, 0xbe,
  0x0d, 0x62, 0x80, 0xbc, 0x6e, 0x0a, 0x4e, 0xbe, 0x72, 0x2b, 0x2a, 0xbe,
  0x26, 0x73, 0xa2, 0x3d, 0x6f, 0xe7, 0x16, 0x3e, 0x15, 0x2d, 0x4c, 0xbe,
  0x68, 0x19, 0x89, 0x3e, 0x79, 0x6f, 0x14, 0x3e, 0x1c, 0xc9, 0xbd, 0xbd,
  0xf6, 0x9f, 0x12, 0x3e, 0xd7, 0x81, 0x41, 0xbe, 0xf7, 0x3a, 0x2e, 0x3d,
  0xdb, 0xce, 0x2e, 0x3d, 0x69, 0x37, 0x40, 0xbe, 0x44, 0x20, 0x6d, 0x3e,
  0xde, 0x61, 0x80, 0xbd, 0x1c, 0xb2, 0x6a, 0x3e, 0xd9, 0xa6, 0x6d, 0x3d,
  0x3a, 0xff, 0xc6, 0x3c, 0x2d, 0x4c, 0x9f, 0x3e, 0xac, 0x70, 0x8e, 0x3e,
  0x88, 0x7b, 0x5d, 0x3e, 0x3b, 0xb7, 0x4d, 0xbe, 0x6f, 0x26, 0x98, 0xbd,
  0x60, 0x36, 0x82, 0xbd, 0x39, 0xae, 0x18, 0xbe, 0x11, 0x81, 0x5f, 0xbe,
  0x1e, 0xd6, 0x2a, 0xbe, 0xe2, 0xe0, 0xff, 0xff, 0x10, 0x00, 0x00, 0x00,
  0x07, 0x00, 0x00, 0x00, 0x1c, 0x00, 0x00, 0x00, 0x38, 0x00, 0x00, 0x00,
  0x04, 0x00, 0x00, 0x00, 0x08, 0x00, 0x00, 0x00, 0x04, 0x00, 0x00, 0x00,
  0x03, 0x00, 0x00, 0x00, 0x01, 0x00, 0x00, 0x00, 0x18, 0x00, 0x00, 0x00,
  0x73, 0x65, 0x71, 0x75, 0x65, 0x6e, 0x74, 0x69, 0x61, 0x6c, 0x2f, 0x63,
  0x6f, 0x6e, 0x76, 0x32, 0x64, 0x2f, 0x43, 0x6f, 0x6e, 0x76, 0x32, 0x44,
  0x00, 0x00, 0x00, 0x00, 0xdc, 0xe0, 0xff, 0xff, 0xd2, 0xe1, 0xff, 0xff,
  0x04, 0x00, 0x00, 0x00, 0xc0, 0x00, 0x00, 0x00, 0xe5, 0x4c, 0xb7, 0x3e,
  0xf1, 0x2e, 0x28, 0x3e, 0xbc, 0x5c, 0x59, 0x3e, 0x6f, 0xca, 0xa0, 0x3e,
  0x98, 0x2b, 0x72, 0x3d, 0x93, 0x89, 0x26, 0xbe, 0x5d, 0x5c, 0x36, 0x3e,
  0x0b, 0xf6, 0xcc, 0x3e, 0x6e, 0xfc, 0xbf, 0x3e, 0x97, 0x67, 0x9e, 0xbe,
  0xb8, 0xf3, 0x72, 0x3e, 0x4f, 0x4c, 0x52, 0xbe, 0x42, 0x06, 0x74, 0xbe,
  0x43, 0xea, 0x8e, 0xbd, 0x4c, 0x01, 0x29, 0x3d, 0x45, 0xd5, 0x4d, 0x3e,
  0xe2, 0x5e, 0xcd, 0x3e, 0xdb, 0xda, 0x88, 0x3e, 0xab, 0xa9, 0x5e, 0x3e,
  0xb1, 0xb9, 0x92, 0x3e, 0x7c, 0x05, 0x03, 0x3e, 0xdb, 0xe7, 0xd2, 0xbd,
  0x47, 0xf7, 0x50, 0x3e, 0x35, 0x64, 0xb4, 0x3e, 0xe5, 0xd9, 0xb2, 0x3e,
  0x9b, 0x7f, 0xe9, 0xbe, 0xcb, 0x52, 0x81, 0x3e, 0xef, 0x59, 0x0f, 0xbe,
  0xa0, 0xe0, 0xcd, 0x3e, 0xa3, 0x74, 0xa1, 0x3c, 0xe4, 0x45, 0x65, 0x3d,
  0xe8, 0x09, 0x34, 0x3e, 0xc4, 0x41, 0xb8, 0x3e, 0x8f, 0x41, 0x9c, 0x3e,
  0xdb, 0x4d, 0x06, 0x3e, 0x89, 0xc8, 0x8a, 0x3e, 0xfa, 0x50, 0xa6, 0x3c,
  0x31, 0x05, 0x2a, 0xbe, 0x20, 0xb9, 0x05, 0x3e, 0xe4, 0xb1, 0xb9, 0x3e,
  0x7b, 0x57, 0xcc, 0x3e, 0xa3, 0x7a, 0x5b, 0x3e, 0x7c, 0x1a, 0x56, 0x3e,
  0x1c, 0xc8, 0xde, 0xbd, 0x04, 0x8a, 0xcd, 0x3d, 0x47, 0x49, 0x78, 0x3e,
  0x65, 0x53, 0xea, 0x3c, 0x09, 0x6e, 0x29, 0x3e, 0xfa, 0xe1, 0xff, 0xff,
  0x10, 0x00, 0x00, 0x00, 0x06, 0x00, 0x00, 0x00, 0x14, 0x00, 0x00, 0x00,
  0x30, 0x00, 0x00, 0x00, 0x02, 0x00, 0x00, 0x00, 0x03, 0x00, 0x00, 0x00,
  0x10, 0x00, 0x00, 0x00, 0x19, 0x00, 0x00, 0x00, 0x73, 0x65, 0x71, 0x75,
  0x65, 0x6e, 0x74, 0x69, 0x61, 0x6c, 0x2f, 0x64, 0x65, 0x6e, 0x73, 0x65,
  0x5f, 0x31, 0x2f, 0x4d, 0x61, 0x74, 0x4d, 0x75, 0x6c, 0x00, 0x00, 0x00,
  0xec, 0xe1, 0xff, 0xff, 0xe2, 0xe2, 0xff, 0xff, 0x04, 0x00, 0x00, 0x00,
  0x00, 0x1c, 0x00, 0x00, 0xe2, 0x8e, 0xdc, 0xbd, 0x29, 0x02, 0x16, 0x3e,
  0xf6, 0x66, 0x41, 0xbe, 0xd5, 0x7c, 0xa0, 0xbe, 0x44, 0x7e, 0xd9, 0x3b,
  0x3d, 0x4e, 0x91, 0x3d, 0xde, 0x94, 0xcb, 0xbc, 0x94, 0x68, 0xc5, 0xbc,
  0x38, 0x9f, 0xe8, 0x3e, 0xb2, 0xdf, 0xb3, 0x3e, 0xd7, 0x8c, 0x9e, 0x3d,
  0xa2, 0x9f, 0xbd, 0xbe, 0x13, 0x77, 0x91, 0xbe, 0xa9, 0x24, 0x8a, 0x3e,
  0xc2, 0xbe, 0x7c, 0xbe, 0xb5, 0x12, 0x33, 0x3e, 0x4d, 0x68, 0xe8, 0xbd,
  0x06, 0x39, 0x6e, 0xbe, 0x88, 0xba, 0x05, 0x3d, 0xb1, 0x4b, 0x10, 0xbc,
  0x72, 0x71, 0x15, 0x3b, 0xd7, 0x1c, 0x11, 0xbf, 0xa2, 0x4f, 0x8b, 0xbe,
  0x2a, 0x66, 0xe8, 0xbc, 0xf4, 0xd6, 0x7a, 0xbd, 0x85, 0x2e, 0x6a, 0xbb,
  0xbe, 0x82, 0xae, 0xbd, 0x6d, 0xd5, 0xba, 0x3e, 0x25, 0xb7, 0xa3, 0x3e,
  0x87, 0x32, 0x63, 0xbe, 0xea, 0xf3, 0x55, 0xbe, 0x36, 0x14, 0x96, 0x3d,
  0x68, 0x62, 0x21, 0xbd, 0x22, 0x0f, 0xe2, 0xbe, 0x1e, 0x70, 0x1a, 0x3e,
  0x2c, 0x1f, 0xdb, 0x3d, 0x4f, 0xf6, 0xc9, 0xbc, 0x5f, 0xcd, 0x0c, 0xbf,
  0x3d, 0xe5, 0xbf, 0xbd, 0x2c, 0x4f, 0xc6, 0x3d, 0x83, 0xe3, 0x7d, 0xbe,
  0xb8, 0xbd, 0x94, 0xbd, 0xab, 0x0f, 0x12, 0xbe, 0x55, 0x4b, 0x36, 0x3e,
  0x20, 0xe6, 0x9c, 0xbe, 0xd6, 0x87, 0xa5, 0x3c, 0xd2, 0xbd, 0x78, 0xbd,
  0x60, 0x17, 0xe7, 0xbd, 0x01, 0xb8, 0x05, 0xbd, 0x71, 0xc2, 0x5c, 0xbe,
  0x44, 0xe9, 0x82, 0xbb, 0x38, 0x46, 0x88, 0x3e, 0x25, 0x1c, 0x5e, 0xbd,
  0x73, 0xf9, 0xda, 0xbe, 0x0f, 0x11, 0x99, 0xbe, 0x1f, 0xbf, 0x32, 0xbd,
  0xdd, 0xce, 0xad, 0xbd, 0x19, 0x83, 0x10, 0xbd, 0xda, 0x2a, 0xcf, 0xbd,
  0xb1, 0x60, 0x8c, 0x3b, 0x1f, 0xcc, 0x7f, 0xbd, 0xd4, 0x4f, 0x6f, 0xbe,
  0x48, 0xdd, 0x9a, 0xbd, 0x52, 0xe2, 0xa7, 0xbe, 0xe8, 0x78, 0x24, 0xbe,
  0xa6, 0xf5, 0x9c, 0xbe, 0xc7, 0x95, 0xa6, 0xbe, 0x04, 0x06, 0x32, 0x3e,
  0xa6, 0xe5, 0x9b, 0xbd, 0x80, 0xd0, 0x77, 0xbe, 0xba, 0x8d, 0xdf, 0xbd,
  0xfb, 0xa8, 0xe5, 0x3d, 0xbf, 0xee, 0xdf, 0x3d, 0xe1, 0xf2, 0x78, 0xbe,
  0xe1, 0xe7, 0xf1, 0xbd, 0x66, 0x1f, 0x9f, 0xbd, 0x10, 0x63, 0x5f, 0xbe,
  0xbb, 0x63, 0x8c, 0xbe, 0x4f, 0x98, 0xce, 0xbd, 0x28, 0x2e, 0xd7, 0xbd,
  0x5f, 0x9a, 0x80, 0xbe, 0xe6, 0x50, 0xc5, 0x3e, 0x09, 0x29, 0x2f, 0xbe,
  0x32, 0x8c, 0x0e, 0x3d, 0x05, 0x12, 0xcc, 0xbd, 0xf3, 0x04, 0x9c, 0xbd,
  0xb3, 0x43, 0xa1, 0xbe, 0xfd, 0x82, 0x03, 0xbe, 0xd5, 0x2d, 0xd3, 0xbd,
  0xe8, 0xf1, 0x0b, 0xbe, 0x7f, 0x4c, 0x90, 0xbe, 0xc2, 0x1f, 0x23, 0xbe,
  0xb5, 0x65, 0x98, 0xbd, 0xb4, 0x2d, 0xc2, 0x3d, 0xf4, 0xbb, 0xb8, 0xbd,
  0xae, 0x0e, 0xc5, 0xbe, 0x8e, 0x4f, 0x4a, 0xbd, 0xc7, 0x64, 0xc7, 0x3e,
  0xa4, 0x13, 0x51, 0x3e, 0x53, 0xf9, 0x4f, 0xbe, 0x92, 0x07, 0x10, 0x3d,
  0xf1, 0x99, 0xf3, 0x3d, 0xcc, 0xa0, 0x2a, 0xbe, 0x92, 0x32, 0x02, 0xbe,
  0x4f, 0xb3, 0x57, 0xbc, 0xac, 0x5b, 0xc7, 0x3d, 0xa3, 0x55, 0x31, 0xbd,
  0xd8, 0xb3, 0x1b, 0xbd, 0xf1, 0xd8, 0x44, 0xbe, 0xd5, 0x97, 0xd2, 0x3c,
  0x4c, 0x8c, 0xcc, 0xbd, 0xf4, 0x7f, 0x40, 0xbe, 0x8f, 0x54, 0xc0, 0xbe,
  0x57, 0x77, 0x95, 0x3d, 0x27, 0x36, 0x73, 0xbd, 0x87, 0xdf, 0x3c, 0x3d,
  0x91, 0xf9, 0xcf, 0x3c, 0x25, 0x12, 0x81, 0x3d, 0x6e, 0x01, 0x3e, 0x3e,
  0xc4, 0xe5, 0x20, 0x3e, 0x0b, 0xdd, 0x03, 0x3e, 0x3d, 0x86, 0xb6, 0xbe,
  0x47, 0xe2, 0xc5, 0xbd, 0x62, 0xe4, 0xff, 0xbd, 0xf1, 0x15, 0x4f, 0xbe,
  0x2f, 0x37, 0x55, 0xbe, 0xbd, 0xbd, 0x37, 0xbd, 0x80, 0x06, 0x36, 0xbe,
  0xd3, 0x2d, 0x10, 0xbf, 0x5e, 0x29, 0x9c, 0x3e, 0xeb, 0xa3, 0xfb, 0xbe,
  0xf1, 0xfe, 0xbe, 0x3d, 0x44, 0x8b, 0x9c, 0x3c, 0xc8, 0x5d, 0xd8, 0xbc,
  0xbc, 0xa9, 0x9c, 0x3e, 0xdd, 0x52, 0x41, 0x3e, 0x9b, 0xd5, 0x09, 0xbe,
  0x6a, 0x11, 0x8a, 0x3d, 0x9d, 0x55, 0x0e, 0x3d, 0x8f, 0xdf, 0x83, 0xbe,
  0xac, 0xab, 0x1d, 0x3e, 0x6a, 0x4b, 0x04, 0x3f, 0x05, 0x44, 0xa2, 0xbe,
  0xb5, 0xd2, 0x42, 0xbe, 0xb2, 0x96, 0x2e, 0xbf, 0x75, 0x64, 0x9e, 0x3d,
  0xa9, 0x51, 0x9d, 0xbd, 0x2a, 0xe8, 0x21, 0xbd, 0x5c, 0x18, 0xab, 0x3d,
  0xe4, 0x2f, 0x19, 0x3e, 0x68, 0x29, 0xc6, 0x3e, 0x0a, 0xb9, 0xa4, 0x3e,
  0x2f, 0x5a, 0x64, 0xbe, 0x43, 0xb1, 0xaa, 0xbb, 0x63, 0x72, 0xb0, 0x3d,
  0xec, 0xb3, 0x39, 0xbe, 0xc8, 0x2a, 0x08, 0x3e, 0x9b, 0x8c, 0x32, 0x3e,
  0x81, 0x31, 0x82, 0xbd, 0x8e, 0x78, 0x0a, 0x3d, 0x4b, 0x85, 0x30, 0xbf,
  0x54, 0xbb, 0xc6, 0x3b, 0x5c, 0x37, 0x66, 0xbe, 0x9b, 0xa8, 0xde, 0x3d,
  0x0e, 0xfc, 0xa9, 0x3c, 0x33, 0x9e, 0xa5, 0xbc, 0x00, 0x6c, 0x20, 0x3e,
  0x32, 0x68, 0x0f, 0x3d, 0x73, 0x9a, 0x97, 0xbd, 0xf0, 0x8e, 0x7d, 0x3e,
  0x0f, 0xfa, 0xb8, 0x3d, 0x5a, 0x8b, 0xae, 0xbe, 0xce, 0xd6, 0x90, 0x3d,
  0x19, 0x96, 0x77, 0x3e, 0x15, 0xab, 0x80, 0xbd, 0x63, 0xaf, 0x07, 0x3c,
  0x40, 0xcf, 0xc5, 0xbe, 0xde, 0xa3, 0x70, 0xbd, 0x45, 0x0d, 0x02, 0xbe,
  0x0b, 0x31, 0x68, 0x3d, 0xb5, 0xdb, 0xaf, 0x3d, 0xf9, 0xd9, 0x04, 0xbe,
  0x0d, 0x6a, 0xa8, 0x3e, 0x35, 0xb4, 0x33, 0xbe, 0x57, 0x31, 0x94, 0x3e,
  0x86, 0xb1, 0x1c, 0x3d, 0x3f, 0x06, 0x79, 0x3d, 0xfc, 0x81, 0x8e, 0xbe,
  0xb3, 0x8f, 0x45, 0x3c, 0x1a, 0xec, 0x05, 0x3e, 0xc5, 0x11, 0x3d, 0xbe,
  0x88, 0x23, 0xd8, 0xbc, 0x49, 0x2f, 0xd0, 0xbc, 0xcb, 0xd0, 0x2c, 0xbe,
  0xa0, 0xcd, 0x96, 0xbe, 0xc0, 0x8f, 0xa1, 0xbd, 0xeb, 0xf8, 0x5d, 0x3d,
  0x0a, 0xee, 0x77, 0xbe, 0x8d, 0xbb, 0x60, 0x3e, 0xf3, 0x9a, 0xa0, 0x3e,
  0xf1, 0xb2, 0x2e, 0xbe, 0x26, 0xf5, 0x06, 0x3e, 0x02, 0x1f, 0xd2, 0x3c,
  0x63, 0x68, 0x4e, 0xbd, 0xef, 0xc0, 0x18, 0xbd, 0x5b, 0xf3, 0x07, 0xbd,
  0xe3, 0x37, 0xac, 0xbc, 0xfa, 0x81, 0xbd, 0xbb, 0x71, 0xc6, 0x6e, 0xbd,
  0x44, 0x7e, 0x90, 0xbe, 0xf5, 0x36, 0x81, 0xbe, 0x1d, 0x65, 0x9b, 0xbb,
  0x79, 0x57, 0xc7, 0xbc, 0x20, 0x97, 0x26, 0xbd, 0x86, 0x40, 0x41, 0x3e,
  0x06, 0x3f, 0xbf, 0x3d, 0x66, 0x5f, 0x62, 0x3d, 0x9a, 0xfe, 0xba, 0xbd,
  0xf9, 0xff, 0x74, 0x3c, 0xad, 0x93, 0xad, 0xbd, 0xb1, 0x89, 0xa5, 0xbd,
  0x73, 0xdf, 0x52, 0xbc, 0xc7, 0x6b, 0xdd, 0x3c, 0xa3, 0x70, 0x0a, 0x3d,
  0x21, 0xfa, 0xa7, 0x3e, 0x62, 0x6e, 0xb1, 0x3d, 0x7c, 0x26, 0x95, 0x3c,
  0xbd, 0xaf, 0x33, 0xbe, 0x72, 0xe5, 0x2a, 0xbc, 0x69, 0xda, 0x86, 0x3d,
  0x60, 0xdf, 0x4f, 0xbd, 0xce, 0x3d, 0x79, 0xbe, 0xf5, 0xb3, 0x0d, 0x3f,
  0xc3, 0x3b, 0xf7, 0xbd, 0xa5, 0x9d, 0x8d, 0x3d, 0x5a, 0x76, 0x0e, 0x3b,
  0x12, 0x1f, 0x18, 0x3e, 0xce, 0x1b, 0x53, 0x3c, 0x59, 0x23, 0xb7, 0x3d,
  0x59, 0xa3, 0x58, 0x3e, 0x99, 0x49, 0xb5, 0x3d, 0xbd, 0xdc, 0x62, 0xbe,
  0x10, 0xb0, 0x19, 0x3e, 0xba, 0x89, 0xe5, 0x3c, 0xa6, 0x28, 0x42, 0xbc,
  0x22, 0xb0, 0x3e, 0xbe, 0x49, 0x0f, 0xf8, 0x3c, 0x1b, 0x2f, 0x81, 0xbd,
  0x16, 0x91, 0xa0, 0x3f, 0x5d, 0x86, 0x99, 0xbe, 0x20, 0x1d, 0x2c, 0xbd,
  0x11, 0xe2, 0x36, 0x3c, 0x0e, 0x2d, 0x50, 0x3d, 0xa4, 0x54, 0xe9, 0xbd,
  0x1c, 0x84, 0xa9, 0x3d, 0x76, 0x4a, 0x57, 0x3e, 0x89, 0x71, 0x6b, 0x3f,
  0x5a, 0x49, 0x13, 0xbe, 0x87, 0x15, 0x11, 0x3e, 0x4f, 0x42, 0x3f, 0xbd,
  0x19, 0x11, 0x54, 0xbd, 0x5d, 0xb4, 0xa1, 0x3c, 0x47, 0x9e, 0x97, 0x3c,
  0x25, 0xa5, 0x43, 0xbe, 0x38, 0x79, 0xbc, 0x3f, 0xc0, 0x31, 0x6f, 0xbc,
  0xc9, 0x0a, 0x2e, 0xbe, 0x54, 0x7a, 0x12, 0x3c, 0xae, 0xdc, 0x95, 0x3d,
  0xf5, 0xaa, 0xb3, 0xbe, 0x63, 0xbf, 0x46, 0x3d, 0x39, 0x3f, 0xfc, 0xbd,
  0xbc, 0xd0, 0x0a, 0x3f, 0xe2, 0x0e, 0x3e, 0x3d, 0xf2, 0xfd, 0x4a, 0xbd,
  0xa1, 0x55, 0x6e, 0x3d, 0x84, 0x7d, 0x22, 0xbd, 0x48, 0x5a, 0xa5, 0x3c,
  0xf6, 0x7b, 0x43, 0x3c, 0x50, 0xc7, 0x29, 0xbe, 0x48, 0x98, 0xaf, 0x3f,
  0x03, 0x57, 0xdc, 0x3d, 0xc1, 0xb9, 0x23, 0xbe, 0x58, 0xcc, 0x07, 0xbd,
  0x6e, 0x8a, 0xc8, 0xbd, 0xae, 0x82, 0x5b, 0xbe, 0x92, 0x98, 0xfc, 0x39,
  0xaa, 0x7c, 0xcf, 0xbd, 0xf2, 0x0b, 0x35, 0x3f, 0x7c, 0x13, 0x17, 0x3e,
  0xf7, 0x9b, 0x1e, 0x3d, 0x8c, 0xf0, 0xa9, 0xbd, 0xbb, 0x6c, 0x8f, 0xbc,
  0xcc, 0x9a, 0x11, 0x3e, 0x4b, 0x15, 0xca, 0xbd, 0xe1, 0x07, 0xe3, 0x3d,
  0xe0, 0xa8, 0x95, 0x3f, 0xf7, 0x4c, 0xaa, 0x3e, 0x3b, 0x79, 0x94, 0xbd,
  0x62, 0x71, 0x05, 0x3c, 0x50, 0xc6, 0x35, 0xbd, 0x83, 0xe4, 0x43, 0x3e,
  0x02, 0x98, 0xc0, 0x3d, 0xde, 0x7b, 0x7e, 0xbe, 0x7d, 0x2f, 0x07, 0x3f,
  0x3b, 0x57, 0x13, 0x3e, 0xdf, 0x5e, 0x96, 0x3d, 0x1a, 0xba, 0x52, 0xbc,
  0xd7, 0xd3, 0xc4, 0xbb, 0x04, 0xe2, 0x26, 0x3d, 0x43, 0x5b, 0x23, 0xbe,
  0x14, 0xb8, 0x61, 0x3d, 0xb6, 0x70, 0x65, 0x3f, 0x8b, 0x55, 0x5f, 0x3e,
  0x84, 0x0d, 0x6f, 0xbd, 0x1b, 0x17, 0x89, 0x3d, 0x5d, 0x93, 0xae, 0x3d,
  0xe8, 0x15, 0x14, 0x3d, 0xdc, 0x6e, 0x1d, 0x3c, 0x4c, 0xe2, 0x60, 0x3d,
  0xb3, 0xfc, 0xb4, 0xbb, 0x6a, 0xd0, 0x20, 0x3e, 0xdd, 0xe1, 0x56, 0x3c,
  0xd2, 0x7b, 0x4e, 0xbd, 0xf5, 0x52, 0xfa, 0xba, 0x48, 0x08, 0x9d, 0x3d,
  0xce, 0xe3, 0x96, 0x3c, 0x07, 0xa2, 0xa4, 0x3d, 0x62, 0x9f, 0xff, 0xbd,
  0x57, 0x9a, 0x9c, 0x3e, 0xe2, 0xe3, 0xb0, 0xbc, 0x98, 0x17, 0x38, 0x3d,
  0x7f, 0xe2, 0x5b, 0x3e, 0x40, 0x43, 0xbe, 0x3d, 0x85, 0xbc, 0x6a, 0x3c,
  0xb3, 0xdd, 0xb0, 0x3a, 0xcf, 0x61, 0x75, 0x3f, 0x8a, 0xea, 0x37, 0xbd,
  0xef, 0x44, 0x79, 0x3d, 0x2e, 0xaf, 0x02, 0xbe, 0x83, 0xcd, 0x06, 0xbd,
  0xda, 0x5a, 0x1d, 0xbd, 0x9c, 0x1c, 0x15, 0xbe, 0x76, 0x96, 0xc4, 0x3d,
  0xbc, 0x3d, 0x1a, 0x3f, 0xdf, 0x6d, 0x1b, 0x3e, 0x44, 0x58, 0x11, 0xbe,
  0x07, 0x86, 0x2b, 0x3e, 0xc1, 0x26, 0x96, 0x3d, 0x99, 0xec, 0x1d, 0xbe,
  0xd5, 0x79, 0x3c, 0x3e, 0xac, 0x63, 0x13, 0x3e, 0x73, 0xf3, 0x5d, 0x3f,
  0x38, 0xb4, 0x7a, 0x3e, 0x96, 0xe6, 0xd9, 0x3c, 0xa2, 0x57, 0x14, 0x3e,
  0xf7, 0xe3, 0x31, 0xbd, 0x9f, 0x3f, 0x9a, 0x3e, 0x66, 0xcb, 0xcb, 0xbd,
  0x9e, 0xa2, 0x0a, 0xbe, 0x14, 0x9b, 0x28, 0x40, 0x23, 0x2a, 0x93, 0x3d,
  0x02, 0xc4, 0xba, 0xbe, 0x46, 0xdc, 0x10, 0xbe, 0x7d, 0xd1, 0x78, 0xbd,
  0x70, 0xaa, 0x8c, 0xbd, 0x62, 0x69, 0xa4, 0x3e, 0x68, 0xef, 0xbb, 0x3c,
  0x03, 0x1a, 0xd2, 0x3f, 0x64, 0xfa, 0xd0, 0x3d, 0xf0, 0xe4, 0x83, 0x3e,
  0xbb, 0x41, 0xb3, 0xbc, 0x21, 0x4b, 0x15, 0xba, 0x49, 0x06, 0x96, 0x3e,
  0x55, 0x4a, 0x34, 0xbe, 0xd9, 0x9b, 0xce, 0xbc, 0xeb, 0x31, 0x3d, 0x40,
  0xcc, 0xaf, 0xcb, 0x3e, 0xa3, 0x8f, 0x3e, 0xbe, 0xa7, 0x8a, 0xc8, 0xbd,
  0xef, 0x82, 0x6a, 0x3d, 0x86, 0x0c, 0x5b, 0x3d, 0xe6, 0x2e, 0x54, 0x3e,
  0x21, 0x99, 0x95, 0x3d, 0xc1, 0x54, 0xc0, 0x3f, 0x18, 0x65, 0x63, 0xbd,
  0x8e, 0xee, 0xce, 0x3e, 0x1d, 0x26, 0x14, 0x3d, 0x74, 0xbd, 0x1a, 0x3d,
  0x6f, 0xe3, 0x4f, 0x3e, 0xaa, 0x24, 0x2c, 0xbe, 0xed, 0x76, 0x78, 0xbd,
  0xac, 0x43, 0x16, 0x40, 0x43, 0xf5, 0xf4, 0x3c, 0x9a, 0x31, 0x69, 0xbe,
  0x7a, 0x23, 0x94, 0xbd, 0xd0, 0x58, 0x7f, 0x3e, 0xc1, 0xb4, 0x6e, 0xbe,
  0x11, 0x09, 0x84, 0x3e, 0xdc, 0x06, 0x2c, 0x3e, 0x39, 0xd2, 0x3e, 0x3f,
  0x80, 0x09, 0xe8, 0xbe, 0xb6, 0xda, 0x56, 0x3e, 0xf6, 0x98, 0x5a, 0x3e,
  0x51, 0xa5, 0x92, 0xbc, 0xc7, 0x71, 0x4b, 0x3d, 0x8b, 0x11, 0x0a, 0xbe,
  0xf8, 0xcf, 0x27, 0xbe, 0xe5, 0x02, 0x25, 0x40, 0x34, 0xc1, 0x7e, 0xbe,
  0x28, 0x2e, 0x38, 0xbe, 0xd5, 0x59, 0x14, 0xbe, 0xc7, 0xc4, 0xd3, 0xbd,
  0x9b, 0xc3, 0x01, 0xbf, 0xca, 0xf5, 0x8c, 0x3e, 0xe5, 0xc0, 0x96, 0x3d,
  0x75, 0xd2, 0xb3, 0x3f, 0x32, 0x6a, 0x9f, 0xbe, 0x3d, 0xf2, 0xd8, 0x3e,
  0xf4, 0xb8, 0x9e, 0x3e, 0xef, 0x7f, 0x2a, 0xbd, 0x7a, 0xc4, 0x15, 0x3e,
  0x88, 0xcd, 0x2e, 0xbd, 0x18, 0xed, 0xb0, 0x3d, 0x63, 0xce, 0xd5, 0x3f,
  0x09, 0x9f, 0x0c, 0xbe, 0xe1, 0x7d, 0xba, 0xbe, 0x82, 0xa6, 0xe6, 0x3d,
  0xb0, 0xfe, 0x93, 0x3e, 0x9f, 0xf4, 0x38, 0xbe, 0x93, 0x3b, 0x2f, 0x3e,
  0x3b, 0xbd, 0x22, 0x3e, 0x45, 0x5f, 0x31, 0x3b, 0xed, 0x94, 0x19, 0x3d,
  0xf9, 0x7b, 0x7b, 0x3e, 0xed, 0x05, 0x3e, 0xbe, 0xeb, 0x14, 0x6e, 0xbd,
  0x0b, 0x51, 0x7c, 0x3d, 0x97, 0x3e, 0x96, 0x3d, 0x11, 0xc6, 0x25, 0xbe,
  0x2e, 0xf7, 0x1c, 0xbe, 0x55, 0x74, 0x16, 0xbb, 0xf3, 0x3e, 0xd4, 0xbd,
  0x70, 0x19, 0x0f, 0xbe, 0xd4, 0x0b, 0x78, 0x3d, 0xfb, 0x59, 0x14, 0xbe,
  0x65, 0x5e, 0xfd, 0x3c, 0x6c, 0x0f, 0x10, 0xbe, 0x38, 0xe9, 0xf4, 0xbd,
  0x5a, 0x27, 0x54, 0x3e, 0x71, 0xf0, 0x96, 0xbe, 0xc0, 0xd2, 0x6a, 0xbe,
  0x82, 0x66, 0xd6, 0xbb, 0x10, 0x04, 0x1b, 0x3e, 0x7b, 0xa1, 0x04, 0xbe,
  0x36, 0xa1, 0x97, 0x3c, 0xfd, 0x53, 0xef, 0xbc, 0xae, 0xe2, 0x02, 0x3e,
  0xc2, 0x35, 0x89, 0x3e, 0x01, 0xd7, 0x81, 0xbe, 0xd0, 0xd3, 0x61, 0x3e,
  0xd8, 0x31, 0x46, 0x3c, 0xb2, 0xb7, 0x7b, 0xbe, 0xd6, 0x04, 0xd0, 0x3d,
  0x0c, 0xb4, 0xa9, 0xbe, 0xf2, 0x3f, 0x49, 0xbe, 0xcb, 0x02, 0x41, 0xbd,
  0x6f, 0xb8, 0xf5, 0x3d, 0x03, 0x9b, 0x30, 0xbe, 0x13, 0x9c, 0x33, 0xbe,
  0xc4, 0xfb, 0x2d, 0x3d, 0x68, 0xb7, 0x00, 0x3e, 0x17, 0xb6, 0xd9, 0x3e,
  0x3c, 0xf3, 0xa0, 0xbc, 0x65, 0x58, 0x1f, 0xbe, 0x80, 0x97, 0x33, 0x3e,
  0xa8, 0x5f, 0x98, 0x3d, 0x81, 0xa6, 0x38, 0xbe, 0xf0, 0x9e, 0x4d, 0xbd,
  0xbf, 0xac, 0x36, 0x3e, 0xb1, 0x9d, 0x46, 0x3e, 0xd8, 0x7d, 0x07, 0xbd,
  0xaa, 0x38, 0xde, 0x3d, 0xaa, 0x02, 0x12, 0x3d, 0x5c, 0x88, 0x06, 0xbe,
  0x3b, 0xe5, 0x1b, 0xbf, 0xf3, 0x0a, 0x87, 0xbd, 0xff, 0xfa, 0xb1, 0x3d,
  0x16, 0x9a, 0x20, 0x3f, 0xdc, 0x69, 0x0a, 0x3e, 0x85, 0xf5, 0x32, 0xbe,
  0xa1, 0x5c, 0x13, 0x3d, 0x96, 0x17, 0x1c, 0x3d, 0xfd, 0xd6, 0xf7, 0xbc,
  0xbe, 0x9b, 0x20, 0xbd, 0x43, 0xfa, 0xa5, 0xbd, 0x1a, 0x75, 0x36, 0x3f,
  0xa5, 0xb6, 0x3c, 0xbc, 0x52, 0xfc, 0x25, 0xbc, 0x9c, 0xa6, 0xb5, 0x38,
  0xea, 0xca, 0x38, 0xbe, 0xb7, 0x5c, 0xa3, 0xbe, 0x4d, 0xdd, 0xa8, 0x3d,
  0x51, 0xbf, 0xad, 0xbd, 0x0a, 0xa5, 0xba, 0x3d, 0xd7, 0x4b, 0x0b, 0x3d,
  0xb8, 0xb6, 0x3d, 0xbe, 0x49, 0x41, 0x2d, 0x3d, 0xaf, 0x4a, 0x46, 0xbe,
  0x80, 0x2d, 0x6e, 0xbd, 0xc5, 0x76, 0x09, 0xbe, 0x93, 0xff, 0x05, 0xbf,
  0x77, 0x20, 0xa8, 0x3e, 0x18, 0xf7, 0x8d, 0x3e, 0xd9, 0xcd, 0xac, 0x3d,
  0x8a, 0xe2, 0x56, 0x3d, 0x72, 0xe8, 0x4e, 0xbe, 0x63, 0xad, 0x23, 0xbe,
  0x02, 0xe3, 0xbe, 0xbd, 0x02, 0xe9, 0x03, 0x3d, 0x85, 0x07, 0xa0, 0x3e,
  0xb5, 0x11, 0xda, 0x3e, 0x6b, 0xfe, 0x14, 0xbe, 0x07, 0x01, 0x3d, 0xbd,
  0xb1, 0x2c, 0x8c, 0x3e, 0x0a, 0x1f, 0x31, 0x3e, 0x88, 0x89, 0xe8, 0x3d,
  0x22, 0x4a, 0x49, 0xbe, 0xcb, 0xe4, 0x7b, 0x3e, 0xbc, 0x7a, 0x2a, 0x3e,
  0xf9, 0x48, 0x1b, 0x3d, 0xd9, 0x94, 0x5c, 0xbe, 0x59, 0xd2, 0x03, 0xbb,
  0x11, 0x5b, 0x7d, 0x3d, 0x40, 0x8a, 0x5c, 0xbe, 0xbf, 0xf9, 0x11, 0xbb,
  0x55, 0x6e, 0x08, 0x3f, 0x63, 0xff, 0x7d, 0x3e, 0x4b, 0xff, 0xe4, 0x3d,
  0x38, 0x3e, 0x3d, 0xbe, 0xb2, 0x61, 0x62, 0xbc, 0xe5, 0x48, 0x96, 0x3e,
  0xfd, 0xbb, 0x11, 0xbe, 0x70, 0xbb, 0x55, 0xbc, 0x87, 0xd1, 0x42, 0x3d,
  0x5f, 0xa5, 0x02, 0xbe, 0xf2, 0x10, 0xa9, 0x3d, 0xab, 0x91, 0x8a, 0xbd,
  0x29, 0xcd, 0x9a, 0xbd, 0x7e, 0xa9, 0x30, 0xbe, 0x90, 0x91, 0xe3, 0xbd,
  0xd5, 0x68, 0x43, 0x3e, 0xab, 0xc7, 0x8a, 0xbc, 0xa8, 0xe9, 0xe5, 0xbd,
  0xef, 0xda, 0xd9, 0xbd, 0x15, 0xbc, 0x10, 0xbc, 0xd3, 0x06, 0x62, 0x3c,
  0xa5, 0xe4, 0x90, 0xbd, 0x58, 0x0e, 0x27, 0xbd, 0x35, 0xf4, 0x29, 0x3d,
  0xcd, 0x86, 0x04, 0x3d, 0x13, 0xaa, 0x52, 0x3e, 0xd2, 0xe0, 0x95, 0xbd,
  0xab, 0x50, 0x88, 0xbe, 0xf7, 0x25, 0xba, 0x3e, 0x74, 0x08, 0x3a, 0x3a,
  0xcc, 0xd1, 0x13, 0x3e, 0x82, 0x5e, 0x0b, 0x3d, 0x11, 0x48, 0x2a, 0x3e,
  0x3b, 0xa0, 0xb4, 0x3e, 0x29, 0xa8, 0x48, 0x3d, 0x31, 0xfb, 0x67, 0xbe,
  0x4f, 0x8d, 0x09, 0x3d, 0x66, 0x3c, 0x74, 0x3e, 0x93, 0x3e, 0x91, 0xbe,
  0xb4, 0x96, 0xf7, 0xbc, 0xf6, 0x93, 0x9f, 0x3d, 0x3c, 0x39, 0x35, 0xbe,
  0x7a, 0x0d, 0x97, 0x3c, 0x24, 0x6b, 0x1e, 0x3e, 0xb0, 0xdb, 0xf6, 0xbd,
  0xc0, 0x80, 0x06, 0x3d, 0xae, 0x48, 0x25, 0xbe, 0x63, 0x7a, 0x8c, 0xbe,
  0xb5, 0x6e, 0x50, 0x3e, 0x40, 0x4c, 0x93, 0xbd, 0xa4, 0x8c, 0xcf, 0x3d,
  0xd8, 0xba, 0x87, 0x3d, 0x64, 0x31, 0x55, 0x3e, 0x96, 0x15, 0x5a, 0xbd,
  0xe2, 0x83, 0x1c, 0xbe, 0xa4, 0x49, 0xc2, 0xbd, 0x75, 0x78, 0x70, 0xbe,
  0xa8, 0x2f, 0x1d, 0x3d, 0xb3, 0x8d, 0x46, 0x3e, 0xb4, 0xde, 0xeb, 0x3d,
  0x22, 0x9e, 0xdc, 0xbd, 0xfe, 0xc1, 0xf3, 0xbe, 0x5f, 0x1c, 0xc8, 0xbd,
  0x95, 0xd6, 0x4e, 0xbe, 0xcf, 0xaf, 0x4c, 0x3d, 0x22, 0x69, 0x3a, 0xbe,
  0xd6, 0xc5, 0x0c, 0xbe, 0x53, 0xb2, 0xaa, 0x3d, 0x25, 0xef, 0x10, 0xbe,
  0xe8, 0x63, 0x42, 0xbe, 0xb2, 0x98, 0x68, 0x3d, 0xf8, 0x5e, 0x93, 0x3d,
  0xb3, 0xe0, 0x0c, 0xbe, 0xfa, 0xe8, 0x83, 0xbd, 0x5f, 0xdb, 0xde, 0xbd,
  0x02, 0x65, 0x37, 0x3e, 0xb4, 0x4e, 0xb3, 0xbd, 0x7d, 0xed, 0xc7, 0xbe,
  0xaf, 0x9e, 0xcf, 0xbe, 0xeb, 0xae, 0x6b, 0x3d, 0xad, 0x1f, 0x98, 0xbe,
  0x48, 0x06, 0x55, 0x3e, 0x53, 0xac, 0xb6, 0xbe, 0xd4, 0x8e, 0x88, 0x3d,
  0x17, 0x61, 0x72, 0x3d, 0x9e, 0xa5, 0x67, 0xbc, 0xc3, 0xe1, 0xa4, 0xbe,
  0x31, 0xa3, 0xb6, 0xbe, 0x57, 0xd6, 0x13, 0x3d, 0x0c, 0x39, 0x29, 0xbe,
  0x0c, 0xb7, 0x71, 0xbd, 0x31, 0x7b, 0xef, 0x3d, 0xbd, 0x06, 0xcc, 0xbd,
  0x5b, 0xb2, 0x06, 0xbe, 0x53, 0x1a, 0xd9, 0xbe, 0x75, 0x9c, 0xfe, 0x3d,
  0x3d, 0x8e, 0x86, 0x3d, 0x2f, 0xcd, 0x42, 0xbe, 0x20, 0x54, 0x2e, 0xbe,
  0xdd, 0x8f, 0x61, 0xbd, 0xbd, 0x1d, 0xc4, 0xbc, 0x40, 0x2f, 0xbc, 0xbc,
  0xfb, 0xdf, 0xc6, 0xbd, 0x99, 0x15, 0x9a, 0xbd, 0x00, 0xb9, 0xe5, 0xbd,
  0xe1, 0x5f, 0x2a, 0x3e, 0x74, 0x83, 0x97, 0xbd, 0x5d, 0x3e, 0xdd, 0x3b,
  0xde, 0xb6, 0xc7, 0xbd, 0xad, 0x48, 0x8a, 0xbe, 0x22, 0xa8, 0x2b, 0x3d,
  0x28, 0xcf, 0xe0, 0x3d, 0xae, 0x29, 0x58, 0x3c, 0x0d, 0x45, 0x55, 0xbe,
  0x1a, 0x03, 0x1b, 0xbe, 0x66, 0x33, 0xd8, 0xbd, 0xfb, 0xad, 0xf8, 0x3d,
  0xf0, 0xa4, 0x54, 0xbe, 0x62, 0x56, 0xe2, 0xbd, 0x92, 0x92, 0x54, 0xbe,
  0x84, 0xf4, 0x4d, 0x3c, 0x05, 0xd4, 0x8b, 0x3e, 0x59, 0x4d, 0x1d, 0x3e,
  0x8e, 0x15, 0x92, 0xbd, 0x29, 0x68, 0x8f, 0xbd, 0x1f, 0xcc, 0x8f, 0xbd,
  0xb2, 0xa1, 0x95, 0xbe, 0x81, 0xd2, 0xbd, 0xbc, 0xa5, 0x76, 0x50, 0x3c,
  0x69, 0x97, 0x9f, 0x3e, 0x2c, 0xb8, 0x29, 0xbd, 0xf3, 0x43, 0x18, 0xbd,
  0xe9, 0x86, 0xe3, 0xbd, 0xfe, 0xde, 0xb1, 0xbc, 0x96, 0xf0, 0x49, 0xbe,
  0xc4, 0x17, 0xc5, 0xbd, 0x4e, 0x2e, 0xbc, 0xbd, 0x60, 0xbe, 0x03, 0xbd,
  0x49, 0x88, 0xbe, 0xbd, 0xed, 0x9d, 0x42, 0xbe, 0x4e, 0xd2, 0x21, 0xbe,
  0xab, 0x60, 0x18, 0xbe, 0xbb, 0x1d, 0xc9, 0xbd, 0x51, 0xec, 0x15, 0x3d,
  0x64, 0x85, 0x81, 0x3d, 0xed, 0xec, 0xb0, 0xbd, 0x8b, 0x86, 0x19, 0xbd,
  0xc1, 0x6a, 0x02, 0xbf, 0x60, 0x1f, 0x82, 0xbe, 0x51, 0x48, 0x33, 0xbd,
  0x28, 0x5b, 0x86, 0x3d, 0xf6, 0xb6, 0x69, 0xbe, 0xc1, 0x89, 0xa6, 0xbd,
  0x40, 0xb8, 0xac, 0xbd, 0x0c, 0xfe, 0x06, 0xbe, 0x9f, 0x49, 0x3f, 0xbe,
  0x2d, 0x74, 0xff, 0xbd, 0x80, 0x66, 0x23, 0xbe, 0xcf, 0x03, 0xfe, 0x3d,
  0x79, 0x0f, 0x22, 0xbd, 0x57, 0xc2, 0x93, 0x3e, 0x39, 0x80, 0x87, 0x3b,
  0xa7, 0x37, 0x6d, 0x3b, 0xa9, 0x34, 0x2d, 0xbf, 0xe9, 0x14, 0xb6, 0xbd,
  0x17, 0x58, 0xf0, 0x3d, 0x38, 0x4f, 0x50, 0xbe, 0x39, 0x5c, 0xa2, 0x3d,
  0x66, 0x05, 0xb3, 0x3d, 0xe2, 0x9c, 0xbc, 0xbb, 0x21, 0x3c, 0x42, 0xbc,
  0xa4, 0xcf, 0xcd, 0xbd, 0x44, 0x7b, 0x4e, 0xbe, 0xdb, 0x2a, 0x36, 0xbe,
  0xe4, 0x49, 0x6a, 0x3e, 0x8d, 0x88, 0x37, 0x3e, 0x59, 0x0b, 0x08, 0xbd,
  0x68, 0xda, 0x1b, 0xbe, 0x6d, 0xf5, 0x07, 0x3d, 0xf3, 0x04, 0x1d, 0xbf,
  0x3e, 0xf9, 0x0d, 0xbb, 0xec, 0x6b, 0xb9, 0x3c, 0x59, 0x90, 0x61, 0x3e,
  0xb4, 0x64, 0x3b, 0xbe, 0x0e, 0x93, 0xaf, 0xbd, 0x8c, 0xf7, 0x14, 0xbd,
  0xce, 0x30, 0x6c, 0x3e, 0x66, 0xee, 0xcb, 0xbd, 0x30, 0x7b, 0x6b, 0xbe,
  0x87, 0xe8, 0x21, 0xbe, 0x46, 0x0b, 0x30, 0xbe, 0x1e, 0x0e, 0x0a, 0x3e,
  0x11, 0x22, 0x1c, 0x3e, 0x06, 0x3f, 0xce, 0x3d, 0x9c, 0x5c, 0xde, 0xbd,
  0x1a, 0x11, 0xf7, 0xbe, 0xce, 0x0e, 0x9d, 0x3d, 0x9c, 0xe2, 0x12, 0xbc,
  0xc3, 0x18, 0x55, 0x3e, 0x3d, 0x23, 0xdf, 0xbd, 0xc3, 0x6e, 0x10, 0x3e,
  0xcc, 0x43, 0x6c, 0x3e, 0xbf, 0x90, 0x0c, 0xbe, 0x7c, 0x9e, 0x4d, 0xbe,
  0x10, 0x2e, 0x22, 0xbe, 0x3f, 0x10, 0x9a, 0x3d, 0x6e, 0xd1, 0x8c, 0x3d,
  0x5b, 0xbc, 0xbb, 0x3e, 0x1b, 0xec, 0x72, 0x3e, 0x4d, 0x6e, 0xe4, 0x3e,
  0x87, 0xbf, 0xee, 0xbb, 0xe7, 0xb3, 0x83, 0xbe, 0xa0, 0x7b, 0xfe, 0x3d,
  0xa5, 0xdb, 0x9d, 0x3e, 0xf7, 0xa8, 0xb2, 0x3d, 0x7c, 0x5c, 0xb2, 0xbc,
  0x81, 0x16, 0x93, 0x3c, 0x4b, 0x7e, 0xa9, 0x3e, 0x2d, 0x8b, 0xba, 0x3d,
  0x50, 0x19, 0x55, 0xbe, 0x7e, 0x1d, 0xf8, 0x3d, 0x47, 0xf5, 0x14, 0xbc,
  0x9d, 0xef, 0x5a, 0xbb, 0x5c, 0xc0, 0x44, 0x3e, 0xb7, 0xd1, 0xad, 0x3d,
  0x57, 0x9a, 0x2c, 0x3e, 0x4a, 0x64, 0x1c, 0x3e, 0x87, 0x60, 0x43, 0xbe,
  0x18, 0xfd, 0x84, 0x3d, 0x50, 0xe6, 0x41, 0x3e, 0xf3, 0xa7, 0x89, 0xbd,
  0x5e, 0x81, 0xc9, 0xbd, 0xbd, 0x29, 0x5e, 0x3d, 0x1c, 0xe2, 0xff, 0xbd,
  0xcf, 0xd0, 0x2a, 0x3d, 0xc7, 0x8b, 0x4c, 0x3d, 0x9c, 0xec, 0xb8, 0xbd,
  0x3a, 0xf9, 0x80, 0x3d, 0xf6, 0x1f, 0xfe, 0x3d, 0xff, 0x5a, 0x09, 0x3d,
  0x57, 0x60, 0x8c, 0xbe, 0xbb, 0xda, 0x8d, 0x3d, 0x8e, 0x56, 0x8b, 0xbd,
  0xaf, 0x5f, 0xa4, 0xbb, 0x13, 0xa7, 0x99, 0x3d, 0xcd, 0xb7, 0x7f, 0x3e,
  0x06, 0x4b, 0x20, 0xbe, 0xbb, 0x39, 0x91, 0x3d, 0xac, 0x99, 0xee, 0x3e,
  0x17, 0xd8, 0xc8, 0xbc, 0xd3, 0xf3, 0xa8, 0x3e, 0x12, 0x71, 0x23, 0xbe,
  0xa2, 0x25, 0xca, 0xbd, 0xfb, 0xde, 0x83, 0xbd, 0xdf, 0xe2, 0x01, 0xbd,
  0x09, 0x25, 0x9c, 0x3d, 0xe1, 0x8c, 0x2b, 0x3e, 0x85, 0xe8, 0x2c, 0xbe,
  0xb8, 0xde, 0x01, 0xbe, 0x12, 0xe7, 0x4c, 0x3e, 0x43, 0xf6, 0xf1, 0x3d,
  0x6b, 0x20, 0x4e, 0xbe, 0x09, 0x32, 0x9d, 0x3e, 0x06, 0x43, 0x63, 0x3c,
  0x2e, 0x26, 0x50, 0x3f, 0x07, 0x4c, 0x50, 0xbd, 0xb3, 0x14, 0x05, 0x3e,
  0x74, 0xe1, 0xc7, 0xbe, 0x86, 0x70, 0xd6, 0xbd, 0x2c, 0x8a, 0xcc, 0x3d,
  0xa3, 0xd5, 0xb7, 0xbe, 0x4b, 0x9f, 0x1d, 0x3e, 0xb2, 0x34, 0xfa, 0x3f,
  0xc4, 0x27, 0x71, 0x3e, 0xa3, 0xd8, 0x98, 0xbe, 0x0e, 0x97, 0x46, 0xbe,
  0x37, 0x99, 0x62, 0xbe, 0xb6, 0xfb, 0x9c, 0x3d, 0x1a, 0x2a, 0x5a, 0x3e,
  0x11, 0x27, 0x58, 0xbc, 0x76, 0xaa, 0xe5, 0x3f, 0x50, 0x67, 0x14, 0xbe,
  0x1e, 0x55, 0x94, 0x3e, 0x29, 0xd9, 0x03, 0x3e, 0x77, 0x0b, 0xef, 0xbd,
  0x9b, 0xb5, 0xf7, 0x3e, 0xbb, 0x3e, 0x97, 0xbd, 0x4b, 0x52, 0x25, 0xbe,
  0x39, 0x4f, 0x38, 0x40, 0xca, 0x1b, 0x20, 0x3e, 0xab, 0x8c, 0xc1, 0xbd,
  0x69, 0xf5, 0x3d, 0xbe, 0x04, 0x69, 0x80, 0xbd, 0xba, 0x5b, 0x2a, 0x3e,
  0x78, 0xfd, 0xac, 0x3d, 0x0e, 0x01, 0x94, 0x3d, 0xa3, 0xde, 0xbd, 0x3f,
  0xa2, 0xcb, 0x25, 0xbe, 0xe1, 0x53, 0x17, 0x3e, 0xaa, 0xc6, 0x25, 0xbd,
  0x63, 0x44, 0xcd, 0x3c, 0xe0, 0x12, 0x70, 0x3e, 0x9c, 0xca, 0x5d, 0xbe,
  0x75, 0x99, 0x0e, 0xbe, 0x8b, 0x91, 0x48, 0x40, 0x30, 0xa0, 0x46, 0xbe,
  0xcf, 0xcd, 0x3d, 0x3c, 0x58, 0xad, 0x8b, 0xbd, 0x7b, 0x89, 0x97, 0x3e,
  0x3e, 0x5f, 0x2e, 0xbe, 0x64, 0x31, 0xea, 0xbd, 0x47, 0xa0, 0xcb, 0x3e,
  0x21, 0x05, 0xce, 0x3f, 0x34, 0x4c, 0xf5, 0xbe, 0x9d, 0x0d, 0x23, 0x3e,
  0x6c, 0xeb, 0x92, 0x3e, 0x22, 0x9b, 0xec, 0x3c, 0x4f, 0xf2, 0xa1, 0x3d,
  0xe3, 0x18, 0xfa, 0xbd, 0x93, 0xb8, 0x66, 0xbe, 0xcf, 0xb9, 0xea, 0x3f,
  0x6c, 0x74, 0xc1, 0xbe, 0x21, 0x74, 0xf6, 0xbc, 0xe2, 0xae, 0xc7, 0xbd,
  0x86, 0xd7, 0x06, 0x3e, 0x33, 0x47, 0x20, 0xbf, 0x11, 0x00, 0xa2, 0x3e,
  0x47, 0xf8, 0x6c, 0x3e, 0xc0, 0x93, 0x40, 0x3f, 0x17, 0x8f, 0x2d, 0xbe,
  0xa7, 0x80, 0x69, 0x3e, 0x85, 0xe9, 0xb8, 0x3e, 0x5e, 0x6c, 0x15, 0xbd,
  0xb0, 0x29, 0x66, 0x3d, 0xee, 0x55, 0x93, 0xbe, 0x02, 0x2d, 0xd6, 0xbd,
  0x81, 0x32, 0x7f, 0x3f, 0x77, 0x9a, 0xc9, 0xbd, 0xe0, 0x2f, 0x85, 0xbe,
  0x45, 0xe7, 0xec, 0x3d, 0x92, 0x15, 0xe5, 0x3d, 0x81, 0xbc, 0xa6, 0xbe,
  0xff, 0xe1, 0xa8, 0x3e, 0xae, 0xa4, 0xca, 0x3c, 0x5b, 0xe0, 0x23, 0x3e,
  0x31, 0x5b, 0xda, 0xbd, 0x17, 0x5e, 0x17, 0x3e, 0x73, 0x9c, 0x41, 0x3e,
  0xee, 0x79, 0xc8, 0xbc, 0xd7, 0xfa, 0x5e, 0x3e, 0x78, 0x66, 0xbe, 0x3d,
  0x30, 0xad, 0x1f, 0xbd, 0x0c, 0x15, 0xd1, 0xbe, 0xe2, 0x3e, 0x84, 0xbc,
  0x93, 0xac, 0xa9, 0xbd, 0x66, 0xeb, 0x03, 0x3d, 0x42, 0x84, 0x08, 0x3e,
  0xfa, 0xe4, 0xe5, 0xbe, 0x44, 0xc3, 0x58, 0x3e, 0xd6, 0x2a, 0x2e, 0x3d,
  0x7c, 0xf1, 0x45, 0x3e, 0x87, 0x35, 0xbf, 0x3c, 0xac, 0xcc, 0xc2, 0xbe,
  0x1b, 0xc4, 0xb6, 0x3e, 0x67, 0x62, 0x32, 0xbd, 0x1f, 0xc3, 0x96, 0xbe,
  0x25, 0xae, 0x21, 0x3e, 0x7c, 0x58, 0xc1, 0x3e, 0xc0, 0x22, 0xe8, 0xbe,
  0xe9, 0xc0, 0x25, 0xbe, 0x05, 0x51, 0x9a, 0xbd, 0x17, 0x04, 0xed, 0x3d,
  0xd3, 0xd7, 0xa7, 0xbe, 0x78, 0x98, 0x82, 0xbe, 0x53, 0x44, 0x03, 0xbf,
  0xa9, 0x3a, 0xe5, 0xbe, 0xc4, 0xec, 0x49, 0x3e, 0xcf, 0x12, 0x50, 0x3e,
  0xe9, 0x07, 0x85, 0xbe, 0x29, 0x1a, 0x9d, 0x3d, 0x68, 0xc3, 0x84, 0x3d,
  0x87, 0x07, 0x55, 0xbe, 0xbb, 0x78, 0x4c, 0x3e, 0x02, 0x34, 0xe6, 0x3e,
  0x7c, 0x8f, 0x1f, 0x3e, 0x43, 0x09, 0x30, 0x3e, 0xa3, 0x64, 0xf6, 0x3c,
  0xe3, 0x12, 0x1b, 0x3d, 0x6f, 0xdb, 0x2b, 0x3e, 0x74, 0x88, 0x7d, 0x3e,
  0xf1, 0x21, 0x1e, 0xbe, 0x67, 0x1e, 0xc1, 0xbe, 0x17, 0x92, 0x8e, 0x3f,
  0x58, 0xed, 0xd6, 0x3d, 0xac, 0x89, 0x4a, 0x3d, 0xc4, 0x6c, 0x03, 0x3d,
  0x48, 0xe3, 0x8d, 0x3c, 0x2d, 0x58, 0x69, 0xbe, 0x3f, 0xbc, 0x93, 0x3d,
  0x67, 0x3d, 0x08, 0x3e, 0xce, 0xe8, 0x00, 0xbe, 0xf2, 0x94, 0x57, 0x3e,
  0xa3, 0x36, 0x31, 0x3e, 0x4b, 0xd8, 0xec, 0x3c, 0xf3, 0x2e, 0xd5, 0x3d,
  0x1f, 0x36, 0x94, 0x3e, 0x29, 0x6b, 0x8e, 0xbd, 0xca, 0x98, 0x08, 0x3e,
  0xba, 0x48, 0x44, 0x3e, 0x97, 0x72, 0x4a, 0xbd, 0x15, 0xc6, 0xa7, 0x3c,
  0xdd, 0xa2, 0xb1, 0x3d, 0x6b, 0xf9, 0xdc, 0x3c, 0x45, 0xac, 0xfe, 0xbd,
  0x67, 0x96, 0x59, 0xbd, 0x2d, 0x9a, 0xe8, 0x3d, 0x57, 0x7c, 0x61, 0xbe,
  0xba, 0xe0, 0x5b, 0xbc, 0x8f, 0xfb, 0x08, 0x3e, 0x57, 0x97, 0xe5, 0x3a,
  0x4d, 0xe6, 0xb8, 0x3d, 0xba, 0x74, 0xec, 0x3e, 0x43, 0x10, 0x32, 0xbe,
  0x45, 0xa2, 0x48, 0xbe, 0x29, 0xfc, 0x1d, 0x3e, 0x5e, 0x7e, 0xcc, 0xbd,
  0x0e, 0x6e, 0x6f, 0xbe, 0x0b, 0x0d, 0xc8, 0x3d, 0x77, 0xcb, 0x11, 0x3d,
  0x74, 0xa5, 0xc3, 0xbe, 0x33, 0xc3, 0x3f, 0x3e, 0x71, 0x14, 0x95, 0x3e,
  0x77, 0x22, 0x91, 0x3e, 0xa3, 0xa4, 0x9e, 0xbe, 0xc8, 0xa1, 0x8c, 0x3d,
  0x65, 0xb2, 0xec, 0x3d, 0x2e, 0xaa, 0x94, 0x3d, 0xfd, 0x65, 0x56, 0xbd,
  0x90, 0x4d, 0x02, 0xbe, 0x31, 0x1b, 0xda, 0xbd, 0x06, 0x34, 0x7a, 0x3e,
  0xfd, 0x4c, 0x35, 0xbe, 0x9c, 0xf4, 0x5e, 0xbd, 0xdd, 0xb7, 0x84, 0xbe,
  0x5c, 0x2f, 0x05, 0xbd, 0x90, 0x8a, 0x23, 0xbf, 0x06, 0x69, 0x96, 0xbc,
  0x30, 0xcc, 0x91, 0x3e, 0xe2, 0x46, 0x37, 0xbf, 0xb3, 0xfd, 0xc8, 0xbc,
  0x59, 0x38, 0xbc, 0x3d, 0xbe, 0xa1, 0x87, 0xbc, 0x00, 0x90, 0x4c, 0xbe,
  0xf6, 0xea, 0xb4, 0xbd, 0xbd, 0xe0, 0xef, 0xbd, 0xd2, 0x52, 0x83, 0xbe,
  0x9a, 0x75, 0xe0, 0xbc, 0x53, 0x38, 0xfd, 0xbe, 0x73, 0x70, 0xdc, 0xbd,
  0x16, 0xd2, 0x2d, 0x3e, 0x40, 0x85, 0x65, 0xbd, 0x68, 0x94, 0xe0, 0xbe,
  0x15, 0x12, 0x2c, 0x3e, 0xc9, 0x14, 0xe5, 0x3e, 0xfa, 0x2b, 0x6b, 0xbe,
  0x72, 0x57, 0xc9, 0xbd, 0xb7, 0x64, 0xa3, 0xbd, 0xfa, 0x50, 0x77, 0x3c,
  0x68, 0xc1, 0x7a, 0xbe, 0x14, 0xf5, 0x13, 0xbd, 0x83, 0x40, 0xdb, 0x3c,
  0xa7, 0xe4, 0x14, 0xbd, 0x7a, 0x60, 0xfb, 0x3d, 0x62, 0x40, 0xa7, 0x3d,
  0xa4, 0xbf, 0x62, 0xbd, 0xdb, 0x1a, 0x23, 0x3e, 0x6f, 0x0b, 0x50, 0xbd,
  0xc9, 0x89, 0xa9, 0xbd, 0xb7, 0xd7, 0x83, 0x3d, 0x32, 0x69, 0x15, 0xbc,
  0xdb, 0x7b, 0x01, 0x3e, 0xeb, 0x61, 0x46, 0xbe, 0x9c, 0x22, 0x89, 0x3c,
  0x9c, 0x25, 0x28, 0xbe, 0xff, 0x08, 0xa4, 0x3d, 0xa6, 0x26, 0x07, 0xbe,
  0x77, 0x3f, 0x74, 0xbe, 0x0f, 0xc0, 0xc0, 0xbc, 0xeb, 0x57, 0xe5, 0xbd,
  0xa9, 0x5a, 0x76, 0xbe, 0xbe, 0x38, 0x60, 0xbe, 0x6c, 0x68, 0x0e, 0xbe,
  0x24, 0xa6, 0xae, 0x3d, 0x2d, 0x6c, 0x6a, 0xbc, 0x65, 0xf0, 0xd1, 0xbd,
  0x5b, 0x9b, 0x4f, 0x3e, 0xdd, 0xd8, 0x72, 0x3d, 0xed, 0xbc, 0x2b, 0xbe,
  0xdc, 0x93, 0x80, 0xbe, 0x67, 0xe2, 0x11, 0xbe, 0x98, 0x2e, 0xff, 0x3d,
  0xd6, 0x90, 0xad, 0xbb, 0xf8, 0xe0, 0xe2, 0xbd, 0x0e, 0x07, 0x51, 0xbe,
  0xc5, 0xe6, 0x4b, 0x3c, 0x3c, 0x27, 0x39, 0xbc, 0x52, 0x36, 0x8d, 0xbd,
  0xe9, 0x4a, 0x08, 0x3e, 0x55, 0x20, 0x89, 0xbe, 0x77, 0xe3, 0x65, 0x3c,
  0x02, 0xdc, 0xe2, 0xbd, 0x7c, 0xdd, 0xd4, 0xbd, 0x57, 0x15, 0x23, 0xbe,
  0xf1, 0xf1, 0xbd, 0x3d, 0xc3, 0xbb, 0x77, 0xbe, 0x1b, 0x93, 0xa9, 0xbb,
  0x0b, 0xbd, 0x39, 0x3c, 0x62, 0x0a, 0x27, 0x3d, 0x2d, 0xa3, 0x13, 0xbe,
  0x36, 0x1d, 0x8d, 0x3d, 0x0c, 0xea, 0xa2, 0xbd, 0xd3, 0xdb, 0x9c, 0xbb,
  0xdd, 0xcd, 0x9b, 0x3c, 0xe0, 0x38, 0x1a, 0x3e, 0xc8, 0xc7, 0x2e, 0xbe,
  0xea, 0xef, 0x15, 0xbe, 0xff, 0x4e, 0x48, 0x3e, 0x15, 0x69, 0x0b, 0xbd,
  0xa6, 0x91, 0xa1, 0xbd, 0x35, 0xbf, 0x3f, 0xbe, 0xaf, 0x67, 0xfc, 0x3d,
  0x06, 0xa1, 0x36, 0xbe, 0xbe, 0x5a, 0x2b, 0xbe, 0x9d, 0x2f, 0xba, 0x3d,
  0x66, 0x01, 0x41, 0x3e, 0x31, 0x5e, 0x86, 0x3c, 0xbc, 0xcd, 0x41, 0xbe,
  0x00, 0xe6, 0x61, 0xbe, 0x42, 0x7c, 0x1e, 0xbe, 0xb3, 0x46, 0x6a, 0xbd,
  0xfd, 0xe4, 0x67, 0xbe, 0x86, 0xbb, 0x53, 0xbe, 0xa8, 0xfe, 0x55, 0x3e,
  0xd7, 0x5d, 0xf7, 0x3d, 0x47, 0x14, 0x50, 0xbe, 0x97, 0x02, 0xc9, 0xbc,
  0xcd, 0xd6, 0x3f, 0xbe, 0x1b, 0xaa, 0xf6, 0xbb, 0x8b, 0xfe, 0xc6, 0xbd,
  0xac, 0xf3, 0x19, 0xbe, 0x40, 0xd6, 0xc2, 0x3d, 0x3f, 0x15, 0x4d, 0xbe,
  0x3e, 0x29, 0xa2, 0x3d, 0x87, 0x37, 0x77, 0xbd, 0xf7, 0x96, 0xba, 0x3d,
  0x7f, 0xab, 0xdf, 0x3c, 0x5a, 0xbb, 0x64, 0xbe, 0xba, 0xd2, 0x9e, 0xbc,
  0xbb, 0x96, 0x3b, 0x3d, 0x51, 0x91, 0x43, 0x3e, 0xac, 0x36, 0xb3, 0x3c,
  0x1a, 0x9f, 0xac, 0xbd, 0x05, 0xf5, 0x07, 0xbe, 0xbd, 0xea, 0xef, 0xbd,
  0xf7, 0xff, 0x14, 0x3e, 0x23, 0x9e, 0xd8, 0xbc, 0x45, 0xa4, 0x56, 0xbe,
  0x7b, 0x11, 0xc3, 0x3d, 0xfc, 0xf9, 0x3e, 0xbe, 0xcd, 0xf2, 0x58, 0xbe,
  0x3c, 0x35, 0xd5, 0x3d, 0xde, 0x0e, 0x83, 0x3c, 0x55, 0x53, 0x76, 0xbe,
  0xb6, 0x74, 0x5e, 0xbd, 0x74, 0xcd, 0x58, 0x3b, 0x02, 0xab, 0x2d, 0xbe,
  0x7f, 0x20, 0x94, 0xbd, 0xf1, 0xb4, 0xad, 0xbd, 0xb3, 0x13, 0x72, 0xbe,
  0x18, 0x6f, 0xa8, 0xbc, 0x83, 0x8e, 0xfe, 0xbd, 0x67, 0x8e, 0x7b, 0x3d,
  0x0d, 0x9f, 0xdb, 0xbc, 0x44, 0x48, 0x70, 0xbe, 0xdb, 0xf0, 0x82, 0xbe,
  0xe0, 0xf4, 0xe0, 0xbe, 0xe6, 0x01, 0x8a, 0xbe, 0x18, 0x39, 0x18, 0xbf,
  0xd6, 0xdb, 0x21, 0xbe, 0x90, 0xc6, 0x01, 0xbe, 0xef, 0xc4, 0x0d, 0xbd,
  0x3a, 0x9f, 0xbe, 0x39, 0x61, 0x15, 0x86, 0xbd, 0x42, 0x25, 0x9b, 0xbe,
  0xeb, 0x0c, 0x3d, 0xbe, 0x76, 0x6d, 0x56, 0xbf, 0x8b, 0x3b, 0x15, 0xbf,
  0x53, 0x56, 0xe8, 0xbe, 0x5e, 0x8f, 0x97, 0xbe, 0x41, 0x38, 0xb6, 0xbe,
  0x6d, 0xb1, 0x10, 0xbe, 0x62, 0xfb, 0x65, 0xbe, 0x72, 0xc3, 0xb1, 0xbe,
  0x49, 0x73, 0x00, 0xbf, 0xa6, 0xf1, 0x12, 0xbe, 0xee, 0x94, 0xac, 0xbd,
  0x53, 0x53, 0xf0, 0xbc, 0xf1, 0x8a, 0x70, 0xbd, 0xd2, 0x25, 0x96, 0xbd,
  0x00, 0x14, 0x30, 0xbe, 0xe7, 0xc2, 0x30, 0xbc, 0x0d, 0x81, 0x66, 0xbf,
  0xda, 0x45, 0x24, 0xbe, 0xba, 0x42, 0xf0, 0xbe, 0x69, 0x25, 0x96, 0xbe,
  0x69, 0x75, 0x95, 0xbe, 0x15, 0x1d, 0x2c, 0xbe, 0x19, 0x79, 0x00, 0xbf,
  0xab, 0xdc, 0x14, 0xbb, 0xeb, 0x9f, 0x4f, 0xbe, 0xcc, 0x83, 0x74, 0xbd,
  0x3f, 0x0c, 0x95, 0xbe, 0xf2, 0x08, 0x2f, 0x3d, 0x71, 0x2d, 0x0f, 0xbe,
  0x36, 0xe3, 0x21, 0xbe, 0xf7, 0xbc, 0x7f, 0xbe, 0xe6, 0x73, 0xb1, 0xbd,
  0xcb, 0x72, 0x52, 0xbf, 0x26, 0x46, 0x91, 0xbe, 0x33, 0x5c, 0x14, 0xbf,
  0xb2, 0x43, 0x86, 0xbe, 0x1c, 0x49, 0x56, 0xbe, 0xbb, 0x2f, 0xa9, 0xbe,
  0xd5, 0xfe, 0x51, 0x3e, 0x1c, 0xea, 0x45, 0xbe, 0x07, 0xe8, 0x0c, 0xbf,
  0x8f, 0x19, 0xff, 0xbd, 0x8b, 0xb0, 0xa3, 0xbe, 0x3c, 0x9b, 0x29, 0x3d,
  0x4d, 0xa4, 0xcc, 0xbd, 0x59, 0x8e, 0x9e, 0xbe, 0x0e, 0x89, 0x43, 0x3e,
  0xaa, 0x67, 0xa5, 0xbc, 0x2b, 0xd4, 0x1d, 0xbf, 0xe8, 0x79, 0x55, 0x3e,
  0x79, 0xa8, 0x9e, 0xbe, 0x6b, 0x22, 0x16, 0xbe, 0x09, 0x56, 0xda, 0xbe,
  0xc3, 0x65, 0x8a, 0xbe, 0xb8, 0xcb, 0x88, 0x3e, 0xb2, 0x03, 0x1f, 0xbd,
  0xfc, 0xa4, 0x04, 0xbf, 0x8d, 0xf6, 0x47, 0xbd, 0x90, 0x6a, 0x9c, 0x3d,
  0xf2, 0xcc, 0x31, 0xbc, 0xe4, 0xbc, 0x66, 0x3e, 0x5c, 0x48, 0x34, 0x3d,
  0xe2, 0x50, 0x35, 0x3e, 0x49, 0x47, 0x66, 0x3c, 0x45, 0x5a, 0x8a, 0xbe,
  0x52, 0xc5, 0x68, 0x3d, 0x22, 0x3d, 0x88, 0x3e, 0xe4, 0x3b, 0xd3, 0xbd,
  0x60, 0x9a, 0xda, 0xbe, 0x1a, 0xa7, 0xd0, 0x3e, 0x3f, 0x73, 0x2b, 0x3e,
  0xc1, 0x3c, 0x05, 0x3e, 0xbf, 0xb2, 0xb0, 0xbe, 0x62, 0xc6, 0x6f, 0xbc,
  0x0b, 0x54, 0x12, 0x3d, 0x6d, 0xa6, 0x15, 0xbd, 0xd3, 0xd8, 0x0b, 0xbd,
  0x5d, 0x5e, 0xb1, 0x3e, 0x59, 0xb4, 0x59, 0x3e, 0x5f, 0x7a, 0xa0, 0xbc,
  0x74, 0xd9, 0x8a, 0xbe, 0x2e, 0xde, 0x8d, 0x3d, 0x02, 0x63, 0x56, 0x3e,
  0x65, 0x0c, 0xa4, 0xbe, 0xdf, 0x0f, 0x00, 0xbd, 0x22, 0xa7, 0x19, 0x3c,
  0xf8, 0x0a, 0xbf, 0x3e, 0x5c, 0xa3, 0xaa, 0xbc, 0xcd, 0xb9, 0x00, 0xbe,
  0x47, 0x9b, 0x37, 0x3d, 0x48, 0xcc, 0x0a, 0x3e, 0xe0, 0x38, 0x68, 0x3e,
  0x12, 0xb8, 0x5c, 0x3e, 0x19, 0x1b, 0x06, 0xbe, 0x90, 0x58, 0xdb, 0x3e,
  0x80, 0xbb, 0x00, 0x3e, 0xbb, 0xef, 0xcc, 0x3d, 0x6c, 0x87, 0x92, 0x3e,
  0x26, 0x52, 0xbc, 0x3e, 0xe5, 0x36, 0x56, 0xbe, 0x28, 0x56, 0x8b, 0xbd,
  0x09, 0x7c, 0x0e, 0xbf, 0xe8, 0xd2, 0x54, 0x3e, 0x14, 0x4c, 0x93, 0xbe,
  0x47, 0xdb, 0x3c, 0x3e, 0xff, 0x04, 0x96, 0xbc, 0x81, 0x66, 0x85, 0xbc,
  0x9c, 0x63, 0xaa, 0x3d, 0x2c, 0xa6, 0xc1, 0x3e, 0x81, 0xed, 0x1a, 0x3c,
  0xc9, 0xd8, 0x67, 0xbe, 0xe4, 0x6f, 0xf5, 0xbd, 0x44, 0xcf, 0x59, 0x3d,
  0x4a, 0x7f, 0xa7, 0xbe, 0x1c, 0xb6, 0x05, 0xbe, 0x0d, 0xd8, 0xa4, 0xbe,
  0x25, 0xc2, 0xa8, 0xbe, 0x28, 0x0a, 0xb8, 0xbe, 0x3f, 0x4b, 0x1e, 0x3e,
  0x2d, 0x49, 0x20, 0xbf, 0x4a, 0x80, 0x38, 0x3d, 0x9b, 0x70, 0xe9, 0x3d,
  0x1a, 0xbd, 0xf5, 0xbd, 0x68, 0xb8, 0xad, 0x3e, 0x49, 0x57, 0xae, 0x3e,
  0xc8, 0x97, 0x5c, 0xbe, 0x72, 0xbe, 0x6a, 0x3d, 0xd7, 0x38, 0xaa, 0x3d,
  0x8c, 0x5e, 0x74, 0x3c, 0x93, 0xc6, 0x1c, 0x3e, 0x80, 0xfc, 0xdf, 0x3e,
  0x3c, 0x1b, 0xdd, 0xbe, 0x7b, 0xa8, 0xec, 0xbe, 0xca, 0x49, 0x85, 0xbd,
  0x03, 0x50, 0x2c, 0x3e, 0x7b, 0x2e, 0x74, 0xbe, 0x44, 0x50, 0x02, 0xbe,
  0xd7, 0x5e, 0xb6, 0x3d, 0x91, 0xab, 0x54, 0xbd, 0xbf, 0x9a, 0xf6, 0x3e,
  0xd0, 0x85, 0x95, 0x3e, 0x07, 0x00, 0xa7, 0xbe, 0xdb, 0x11, 0x99, 0x3e,
  0xa0, 0xff, 0x0d, 0x3e, 0x8e, 0x9a, 0x9e, 0x3a, 0xa6, 0x9a, 0xc1, 0x3d,
  0x53, 0xcb, 0xc6, 0x3e, 0xc9, 0xdf, 0x34, 0xbe, 0xfa, 0x1f, 0x97, 0x3d,
  0x70, 0xd4, 0xb7, 0xbd, 0x06, 0x33, 0xd7, 0x3c, 0xbe, 0x91, 0x8b, 0xbe,
  0xe0, 0xa7, 0xf3, 0x3c, 0x50, 0x12, 0xfb, 0x3d, 0xc9, 0x61, 0xca, 0xbd,
  0x46, 0x89, 0x47, 0x3e, 0x90, 0x9a, 0x8a, 0x3d, 0x08, 0xd7, 0x77, 0xbe,
  0x13, 0x69, 0xdf, 0x3d, 0x2d, 0xe0, 0x2b, 0x3e, 0xa7, 0x2f, 0xc2, 0xbb,
  0x3b, 0xfa, 0x2b, 0xbd, 0x9d, 0xd9, 0x6e, 0x3e, 0xcd, 0xe5, 0x16, 0xbe,
  0x5a, 0xb7, 0xf9, 0xbd, 0x1b, 0x11, 0x3b, 0x3e, 0xec, 0x13, 0xbc, 0xbb,
  0xad, 0x61, 0xda, 0xbe, 0x62, 0x33, 0x0e, 0xbe, 0xec, 0xd3, 0x9a, 0x3d,
  0x22, 0x78, 0x1e, 0xbe, 0x24, 0x42, 0x9b, 0x3e, 0x34, 0x80, 0x9c, 0x3e,
  0x72, 0x37, 0x24, 0xbe, 0xd8, 0x50, 0xfc, 0x3d, 0x5e, 0xc1, 0x45, 0x3c,
  0xd8, 0x54, 0x9b, 0x3d, 0x69, 0xe4, 0x72, 0xbb, 0x03, 0xe3, 0xc7, 0xbc,
  0x29, 0xa7, 0x98, 0xbe, 0xbc, 0x80, 0x3c, 0xbe, 0x47, 0x3f, 0x7a, 0xbe,
  0x68, 0x74, 0x8b, 0xbe, 0xfd, 0xf8, 0x8f, 0xbe, 0xef, 0x1e, 0x2f, 0xbe,
  0xd9, 0x58, 0x80, 0x3d, 0x23, 0x97, 0xab, 0xbe, 0x64, 0xee, 0xc6, 0x3e,
  0x44, 0xfd, 0xaa, 0x3e, 0x3d, 0x84, 0x0c, 0xbe, 0x65, 0xf6, 0x5c, 0x3e,
  0xc5, 0x91, 0xd9, 0xbb, 0xb8, 0x06, 0x40, 0xbd, 0x82, 0x0e, 0x62, 0xbe,
  0x5f, 0xe5, 0xde, 0xbd, 0x12, 0xcb, 0x60, 0xbe, 0xab, 0xb3, 0x1c, 0xbd,
  0x7b, 0xb0, 0x4b, 0x3d, 0xfd, 0x6d, 0xd6, 0xbe, 0x04, 0xda, 0x09, 0xbe,
  0x52, 0xd7, 0xc3, 0x3d, 0x76, 0xd7, 0x73, 0xbc, 0x76, 0x39, 0x29, 0xbe,
  0xc7, 0x8e, 0x3b, 0x3e, 0xc3, 0xd4, 0x16, 0x3f, 0x61, 0x8c, 0xbb, 0xbe,
  0x8f, 0x93, 0xb1, 0xbd, 0x72, 0x90, 0xea, 0xbb, 0x5f, 0xfc, 0x84, 0x3c,
  0x52, 0xe5, 0xa2, 0xbe, 0xf2, 0x77, 0xaa, 0xbd, 0x1a, 0x52, 0x93, 0xbc,
  0x05, 0x17, 0x18, 0xbd, 0xac, 0xa6, 0xd5, 0xbd, 0x17, 0x8a, 0x55, 0x3d,
  0x41, 0x47, 0x79, 0xbc, 0x65, 0x0a, 0xd6, 0x3d, 0xf8, 0x45, 0x43, 0x3c,
  0xcc, 0x4a, 0xa2, 0xbe, 0x4b, 0xa6, 0xcb, 0x3d, 0xc1, 0x5d, 0xf0, 0x3d,
  0xfc, 0xbd, 0x2d, 0xbe, 0x4a, 0xb8, 0x9a, 0xbd, 0xe6, 0x6d, 0x94, 0xbd,
  0x72, 0x97, 0x23, 0xbe, 0x41, 0xe3, 0xb2, 0xbc, 0x1c, 0x22, 0x9a, 0x3e,
  0x06, 0x18, 0xec, 0x3b, 0xc4, 0x53, 0x1c, 0xbe, 0x56, 0x99, 0xf1, 0x3d,
  0x5f, 0x03, 0xc6, 0x3d, 0x2b, 0x9c, 0x55, 0x3e, 0xe3, 0x0d, 0x3f, 0xbe,
  0xe6, 0x23, 0xa2, 0xbc, 0xf5, 0xb6, 0x95, 0xbd, 0x56, 0x60, 0xc6, 0x3c,
  0xbe, 0xf6, 0x2c, 0x3e, 0xb1, 0xfd, 0xbf, 0x3d, 0xc1, 0x5a, 0x20, 0xbe,
  0xd2, 0xc3, 0x87, 0xbe, 0xc7, 0xee, 0x88, 0xbd, 0xe9, 0x55, 0x8a, 0x3d,
  0x19, 0x11, 0x2c, 0x3d, 0xc1, 0x07, 0x06, 0xbe, 0xcd, 0x4c, 0x37, 0xbd,
  0x78, 0xcd, 0x06, 0xbe, 0xd2, 0xf1, 0x28, 0x3e, 0xbc, 0x8e, 0x48, 0xbe,
  0x8a, 0xbf, 0x7c, 0xbe, 0x5f, 0x75, 0x60, 0xbe, 0xda, 0xf7, 0x18, 0xbe,
  0x98, 0x96, 0x68, 0xbe, 0x3f, 0x00, 0xf1, 0xbc, 0x7e, 0x41, 0x17, 0xbe,
  0xa4, 0x7e, 0x51, 0x3e, 0xe7, 0x59, 0xa3, 0xbd, 0xb5, 0xc5, 0xf8, 0xbd,
  0xc6, 0x9b, 0x11, 0xbe, 0x91, 0x91, 0xf4, 0xbd, 0x0d, 0x92, 0x34, 0xbe,
  0xbb, 0x6c, 0x19, 0xbc, 0x6a, 0x14, 0xd8, 0xbd, 0x3e, 0x68, 0x30, 0x3e,
  0xd4, 0x51, 0x4c, 0xbe, 0xc3, 0x7b, 0x64, 0xbd, 0xf9, 0x03, 0x84, 0xbe,
  0x0d, 0x15, 0x9f, 0x3d, 0x5f, 0x8b, 0x79, 0x3d, 0xdf, 0x61, 0xa8, 0xbd,
  0xe0, 0x71, 0x03, 0x3e, 0xac, 0x15, 0x08, 0x3b, 0x4d, 0xd7, 0x54, 0xbe,
  0x7c, 0x9d, 0x0d, 0xbe, 0x37, 0xf0, 0x12, 0xbd, 0xe5, 0x30, 0x0f, 0xbd,
  0x28, 0xf6, 0x85, 0xbd, 0xbd, 0x46, 0x9c, 0xbc, 0xf6, 0x65, 0x86, 0x3d,
  0x11, 0xf0, 0x73, 0x3d, 0xef, 0xbd, 0x0d, 0x3d, 0x1b, 0x2d, 0x93, 0xbd,
  0xb0, 0xe6, 0x54, 0xbe, 0x07, 0x69, 0x83, 0x3d, 0x18, 0xb7, 0x0d, 0x3e,
  0xb4, 0xc2, 0x4b, 0xbe, 0xb5, 0x2b, 0x5b, 0xbe, 0x89, 0x9f, 0x0e, 0x3e,
  0x46, 0xea, 0xb3, 0x3d, 0x6f, 0x26, 0xca, 0xbd, 0x1b, 0xec, 0x20, 0x3e,
  0xfd, 0x68, 0xf9, 0xbd, 0x95, 0x0f, 0x1b, 0x3e, 0xde, 0x20, 0x0a, 0xbe,
  0x4e, 0xb5, 0x36, 0xbd, 0xa0, 0x02, 0xe4, 0xbc, 0x55, 0x8f, 0x29, 0xbe,
  0x4f, 0x47, 0x10, 0x3d, 0xb6, 0x1d, 0x48, 0xbe, 0xde, 0x81, 0x9b, 0xbe,
  0xfa, 0x17, 0x39, 0xbe, 0xa9, 0xe9, 0xe4, 0xbc, 0x3b, 0xcd, 0x98, 0xbd,
  0x08, 0xf8, 0x03, 0x3e, 0xeb, 0x11, 0x54, 0xbe, 0xa5, 0xae, 0xde, 0xbc,
  0x80, 0x6f, 0xe5, 0x3d, 0xc7, 0x16, 0x31, 0xbd, 0x02, 0xc8, 0xf1, 0xbc,
  0xb9, 0x99, 0x61, 0xbd, 0x53, 0x0e, 0x9c, 0xbb, 0xdd, 0x0b, 0x83, 0x3d,
  0xab, 0xd8, 0x69, 0xbd, 0x2f, 0xbf, 0x02, 0xbe, 0xf4, 0xbb, 0x16, 0xbe,
  0xa3, 0xb4, 0x58, 0xbe, 0xcd, 0x6e, 0xed, 0x3b, 0xfb, 0x45, 0x12, 0xbe,
  0x9d, 0x96, 0x11, 0xbd, 0xf9, 0xe2, 0x60, 0xbd, 0x32, 0xd9, 0x14, 0xbe,
  0x1f, 0xf7, 0xae, 0xbd, 0x9a, 0x4d, 0x18, 0xbd, 0xe1, 0x71, 0x2e, 0xbd,
  0xfb, 0x3b, 0x29, 0x3d, 0x3c, 0x8d, 0x2b, 0xbe, 0xa3, 0xcb, 0x81, 0xbd,
  0xba, 0x60, 0xf7, 0xbd, 0xca, 0xb6, 0x84, 0x3c, 0x1e, 0xb1, 0x26, 0xbd,
  0x4a, 0x52, 0x42, 0xbe, 0x60, 0x1e, 0x5f, 0xbc, 0x22, 0x62, 0xdc, 0x3d,
  0x7a, 0xa6, 0x4a, 0xbb, 0xb1, 0xe7, 0xbe, 0x3d, 0x72, 0x50, 0x98, 0x3d,
  0x13, 0x92, 0x89, 0xbe, 0x14, 0x8e, 0x60, 0xbe, 0x90, 0x67, 0x92, 0x3d,
  0x40, 0x19, 0xd3, 0x3c, 0x7f, 0x05, 0xf3, 0x3d, 0x77, 0x94, 0x48, 0xbe,
  0xdb, 0xfe, 0x97, 0xbd, 0xa4, 0x3f, 0x33, 0x3e, 0xe6, 0x22, 0x8e, 0xbd,
  0xbc, 0x2c, 0xb8, 0xbd, 0x3c, 0x6e, 0x45, 0xbe, 0x43, 0xfa, 0x19, 0x3e,
  0xdb, 0x2e, 0x9d, 0x3e, 0xd2, 0x07, 0x92, 0xbd, 0x9b, 0x75, 0x83, 0x3e,
  0x36, 0x5a, 0x11, 0x3e, 0xa3, 0x6b, 0x4d, 0x3c, 0xaf, 0xe4, 0x69, 0xbe,
  0x7b, 0x6e, 0x5e, 0x3e, 0x4e, 0x7a, 0x3c, 0x3e, 0x92, 0xc9, 0xc7, 0x3d,
  0xfe, 0x49, 0x68, 0xbd, 0x88, 0x1d, 0x01, 0xbe, 0x30, 0x48, 0xc6, 0x3d,
  0x42, 0x2e, 0x98, 0xbb, 0xa8, 0x47, 0x7d, 0x3e, 0x26, 0x94, 0xd5, 0xbe,
  0xfa, 0xe8, 0x15, 0x3e, 0xc3, 0x19, 0x3b, 0xbe, 0x3c, 0x5e, 0xc8, 0xbd,
  0x9c, 0x2f, 0x43, 0xbe, 0xb3, 0x58, 0x20, 0x3e, 0x77, 0x3b, 0xcf, 0x3e,
  0x05, 0xaa, 0x53, 0x3e, 0x5b, 0x69, 0x22, 0xbe, 0x35, 0x58, 0x02, 0x3d,
  0xe4, 0x6f, 0x1b, 0xbe, 0x7b, 0x43, 0x1c, 0x3c, 0x59, 0x59, 0xf4, 0xbd,
  0x20, 0xe1, 0xe9, 0x3d, 0x5d, 0x45, 0xd0, 0xbd, 0xc0, 0x46, 0x05, 0xbe,
  0x69, 0x4a, 0x20, 0xbe, 0xbf, 0x7f, 0x45, 0x3e, 0xc5, 0xb9, 0x23, 0xbe,
  0x43, 0xf7, 0x47, 0x3e, 0x1e, 0x5f, 0x86, 0x3d, 0xff, 0x71, 0x53, 0x3e,
  0x1f, 0xf1, 0x0d, 0xbb, 0x5f, 0x75, 0x25, 0xbe, 0x2a, 0x7f, 0x85, 0x3e,
  0xf1, 0xa8, 0x67, 0xbd, 0x05, 0x7b, 0x8a, 0xbd, 0x3d, 0xb2, 0xac, 0xbd,
  0x52, 0x47, 0x27, 0xbe, 0x9c, 0x65, 0xde, 0x3c, 0xd5, 0xa6, 0x91, 0xbe,
  0x13, 0xfc, 0x20, 0xbe, 0xb1, 0xf7, 0xea, 0xbd, 0x62, 0xa6, 0x46, 0xbc,
  0x4f, 0x50, 0x12, 0xbd, 0xfa, 0xeb, 0xfe, 0x3c, 0xe1, 0x8e, 0x39, 0xbd,
  0x80, 0x1f, 0xaa, 0xbd, 0x0f, 0x9a, 0x8f, 0xbc, 0x7d, 0x1c, 0x3d, 0xbe,
  0x5e, 0x3a, 0x2f, 0x3e, 0xbd, 0x81, 0x90, 0xbd, 0x35, 0x2b, 0x22, 0x3b,
  0x1b, 0x38, 0x81, 0xbd, 0x44, 0x17, 0x70, 0x3d, 0x20, 0x59, 0x2f, 0xbe,
  0xc8, 0x74, 0x90, 0xbe, 0x58, 0x2f, 0x65, 0xbe, 0x4e, 0xc6, 0xa5, 0xbd,
  0x7b, 0xa1, 0x84, 0xbe, 0x24, 0x1b, 0x30, 0xbe, 0x28, 0x54, 0x4d, 0xbe,
  0x33, 0xe4, 0x9e, 0xbd, 0x6d, 0x8b, 0xba, 0x3d, 0x3c, 0xce, 0x56, 0x3d,
  0xfc, 0xed, 0x6d, 0xbe, 0x5a, 0xd6, 0x2b, 0x3c, 0x2c, 0xb0, 0xa9, 0xbc,
  0x98, 0x83, 0xb0, 0x3d, 0x99, 0x9a, 0x1a, 0xbc, 0xf5, 0x92, 0xaa, 0xbc,
  0x67, 0x85, 0x08, 0xbe, 0xa1, 0xcc, 0x50, 0xbe, 0x3a, 0x80, 0x4e, 0xbe,
  0xe6, 0x86, 0xe6, 0xbd, 0xb0, 0x35, 0x4d, 0xbe, 0x83, 0xa0, 0x8e, 0x3c,
  0x95, 0x67, 0x0e, 0xbd, 0x5b, 0x0c, 0x3b, 0x3d, 0x8e, 0xd0, 0x73, 0xbc,
  0x8d, 0xca, 0x7f, 0x3b, 0x5e, 0x8e, 0xaa, 0xbe, 0x4d, 0x60, 0x40, 0xbe,
  0x8f, 0xea, 0x2b, 0x3e, 0x05, 0xe8, 0x53, 0xbc, 0xef, 0xab, 0xce, 0xbc,
  0x44, 0x11, 0x10, 0xbe, 0xf9, 0x3d, 0x3c, 0xbe, 0x16, 0xfc, 0x40, 0x3d,
  0x0c, 0x8d, 0x7d, 0x3d, 0x05, 0x60, 0x09, 0xbe, 0x05, 0x79, 0x4e, 0xbd,
  0xc7, 0x1b, 0xcd, 0x3b, 0xbe, 0x23, 0xb3, 0xbd, 0x8a, 0xb7, 0x07, 0xbe,
  0x95, 0xe9, 0xe2, 0xbc, 0x22, 0x76, 0x38, 0xbe, 0xd0, 0x9a, 0xf5, 0xbc,
  0x29, 0x08, 0xd6, 0x3d, 0xda, 0x1e, 0xf5, 0x3d, 0xdb, 0x37, 0x2d, 0xbe,
  0x91, 0xed, 0xf2, 0xbd, 0x86, 0xe5, 0xe1, 0x3d, 0x5b, 0xff, 0x06, 0x3e,
  0xaf, 0x42, 0xa9, 0xbd, 0x62, 0xe9, 0xce, 0xbd, 0x0d, 0x16, 0x27, 0xbe,
  0xfe, 0x70, 0x86, 0xbe, 0x93, 0xd9, 0x34, 0x39, 0x6f, 0x07, 0xbc, 0x3c,
  0xe8, 0x80, 0xf6, 0xbd, 0x7f, 0x87, 0x99, 0xbd, 0x9c, 0xe9, 0x6b, 0x3d,
  0x53, 0x57, 0x23, 0xbe, 0xe3, 0x8f, 0xaa, 0x3d, 0x7a, 0x69, 0x96, 0xbb,
  0xa4, 0x60, 0x2e, 0xbd, 0xf9, 0x26, 0x33, 0xbe, 0x3f, 0xb1, 0x30, 0xbe,
  0xc3, 0x19, 0x3f, 0xbe, 0x38, 0xc3, 0x2e, 0xbc, 0x3c, 0xc4, 0x82, 0x3d,
  0xc3, 0x58, 0x7b, 0xbe, 0xe9, 0x12, 0x05, 0xbe, 0x45, 0xd9, 0x2e, 0x3d,
  0x79, 0x99, 0x45, 0xbe, 0x21, 0x3c, 0x83, 0x3d, 0x1f, 0x3c, 0xe1, 0x3c,
  0x92, 0xff, 0x36, 0xbe, 0xcc, 0x46, 0x39, 0x3c, 0x60, 0x4c, 0x1f, 0x3e,
  0x3c, 0x51, 0xa7, 0xbd, 0x8f, 0x2d, 0x3a, 0xbe, 0xb3, 0x1a, 0xca, 0x3c,
  0xae, 0xba, 0xbf, 0xbe, 0xb6, 0xda, 0xdf, 0xbd, 0x7a, 0xed, 0xab, 0xbd,
  0x92, 0x1a, 0x77, 0xbe, 0xa2, 0xec, 0x79, 0xbe, 0xfb, 0x4f, 0xee, 0x3c,
  0x90, 0xe3, 0x51, 0x3e, 0xf0, 0x9c, 0x7b, 0x3d, 0xbd, 0x02, 0x22, 0x3e,
  0xed, 0x46, 0x08, 0x3e, 0x3e, 0x09, 0x9e, 0x3d, 0xd8, 0xdd, 0x61, 0x3d,
  0x8e, 0xd2, 0xfc, 0x3d, 0xa0, 0x7e, 0xf0, 0x3d, 0x9f, 0xa5, 0xbe, 0x3d,
  0x8b, 0x72, 0x5b, 0xbe, 0x27, 0xa8, 0xce, 0x3d, 0xc4, 0x03, 0xd6, 0xbd,
  0xbb, 0x13, 0xba, 0x3d, 0xc1, 0x63, 0x40, 0xbc, 0x47, 0x8b, 0xb7, 0xbe,
  0x8d, 0xe0, 0x00, 0xbe, 0xfb, 0x33, 0x7a, 0xbd, 0x72, 0x24, 0x32, 0x3e,
  0xbc, 0x25, 0x64, 0xbe, 0x1a, 0x8d, 0xd8, 0xbd, 0xa7, 0xc1, 0xc1, 0xbc,
  0x79, 0x82, 0x31, 0xbe, 0x23, 0x58, 0x51, 0x3d, 0x53, 0x28, 0x24, 0x3e,
  0xea, 0xbe, 0xb4, 0x3d, 0x4d, 0x8a, 0xb0, 0xbe, 0xa0, 0xa1, 0x55, 0xbe,
  0x40, 0x9a, 0xe3, 0x3d, 0x67, 0xc4, 0x35, 0xbe, 0x6f, 0x01, 0x08, 0xbe,
  0xc5, 0x5a, 0xb5, 0xbe, 0x39, 0xb3, 0x3d, 0xbe, 0x53, 0xfb, 0x6a, 0x3e,
  0xa3, 0x34, 0x01, 0x3e, 0x70, 0xe3, 0xf5, 0x3d, 0x62, 0xa4, 0x34, 0xbe,
  0x65, 0xa0, 0x87, 0x3d, 0x94, 0xb4, 0x8d, 0xbe, 0xcf, 0x53, 0x42, 0xbd,
  0x2c, 0x93, 0x2e, 0xbe, 0xdb, 0x8c, 0x3b, 0xbe, 0x4c, 0x9e, 0x41, 0xbd,
  0x25, 0x8f, 0x9e, 0x3d, 0xd7, 0x66, 0x9d, 0xbd, 0x68, 0xf5, 0x55, 0x3d,
  0xf8, 0x1b, 0x1d, 0x3e, 0x54, 0x07, 0x7a, 0xbe, 0x4c, 0xe3, 0x38, 0xbd,
  0x7d, 0xb6, 0xf5, 0x3d, 0x22, 0x5a, 0x0f, 0x3e, 0x42, 0x6d, 0x1f, 0xbb,
  0x25, 0x73, 0x4e, 0xbe, 0xbf, 0x21, 0x78, 0xbe, 0xde, 0xa4, 0x00, 0xbe,
  0x16, 0x2d, 0x0e, 0x3e, 0x48, 0xf1, 0xd8, 0x3c, 0xf2, 0xfe, 0x0e, 0xbe,
  0x9d, 0x23, 0x94, 0xbe, 0xbc, 0x2a, 0x5f, 0x3f, 0x17, 0x33, 0xd8, 0xbd,
  0x7d, 0x6e, 0xa1, 0x3e, 0xbe, 0x7d, 0x39, 0x3e, 0xf8, 0xf3, 0x92, 0xbe,
  0x2b, 0x15, 0xa2, 0xbe, 0x4e, 0x68, 0xb9, 0xbd, 0x01, 0x45, 0x39, 0x3e,
  0xc8, 0x0f, 0x9a, 0x3e, 0x78, 0xcb, 0xa5, 0xbe, 0xab, 0xbf, 0xba, 0xbe,
  0xcd, 0x7a, 0x74, 0x3e, 0x1b, 0xab, 0xe5, 0x3d, 0x53, 0x4d, 0x61, 0xbe,
  0x6f, 0x50, 0x8a, 0x3e, 0xc8, 0x3b, 0xbb, 0x3c, 0x00, 0x90, 0x5c, 0x3f,
  0x8e, 0x16, 0xf7, 0x3d, 0x2d, 0xad, 0xaf, 0x3d, 0x73, 0xed, 0x19, 0x3f,
  0x5b, 0x5d, 0x39, 0xbe, 0xbd, 0xcf, 0x17, 0x3f, 0x45, 0x3b, 0x7b, 0xbe,
  0x5f, 0x69, 0x82, 0xbe, 0x87, 0xba, 0x13, 0x40, 0xb1, 0x51, 0x95, 0x3d,
  0x76, 0xe8, 0xb1, 0xbe, 0xff, 0xf6, 0xc4, 0xbc, 0x74, 0xa4, 0x19, 0x3e,
  0x9f, 0xf8, 0x1b, 0x3e, 0x59, 0xae, 0xc0, 0x3e, 0x4e, 0xd1, 0x62, 0xbd,
  0x71, 0x3c, 0x1a, 0x40, 0xa4, 0x40, 0x9c, 0xbe, 0xec, 0x0e, 0x83, 0x3d,
  0x00, 0x0f, 0xbf, 0x3e, 0xfc, 0xac, 0xb8, 0xbd, 0x5c, 0xfe, 0xbe, 0x3e,
  0x45, 0x8e, 0x6f, 0xbd, 0x8a, 0x9f, 0x0d, 0xbe, 0xf4, 0x04, 0x2d, 0x40,
  0x50, 0xbb, 0x3a, 0x3e, 0x82, 0x0a, 0xa9, 0xbd, 0xc2, 0x93, 0xfc, 0x3c,
  0xb4, 0xf6, 0x16, 0x3e, 0x55, 0xd9, 0x23, 0x3e, 0xd9, 0x67, 0x9d, 0x3d,
  0x73, 0xc7, 0x3f, 0x3c, 0xa9, 0x28, 0xca, 0x3f, 0x27, 0x64, 0xdd, 0xbd,
  0x92, 0x74, 0xd3, 0x3e, 0xb5, 0x76, 0xb8, 0x3e, 0x4f, 0xca, 0x0e, 0xbd,
  0xc4, 0x44, 0x3b, 0x3e, 0xfe, 0x1c, 0x75, 0xbe, 0x33, 0x82, 0x45, 0x3d,
  0x53, 0x84, 0x1f, 0x40, 0x20, 0x9e, 0x6b, 0x3d, 0x00, 0x9e, 0x48, 0xbd,
  0x85, 0x42, 0xe0, 0x3d, 0x72, 0x58, 0xeb, 0x3e, 0x76, 0xe7, 0xa8, 0xbd,
  0x21, 0x8f, 0xbd, 0x3e, 0xa1, 0x80, 0xa7, 0x3e, 0xac, 0x87, 0x75, 0x3f,
  0xe0, 0x46, 0x3a, 0x3d, 0x1a, 0x6c, 0xd9, 0x3e, 0xcd, 0x76, 0x81, 0x3e,
  0x0f, 0x20, 0xe4, 0xbd, 0xf2, 0xbd, 0x04, 0x3d, 0x46, 0xa1, 0x42, 0xbe,
  0xb1, 0xae, 0x86, 0xbc, 0x88, 0xdc, 0x7c, 0x3f, 0x00, 0x98, 0x0f, 0x3c,
  0xcc, 0x04, 0x70, 0xbe, 0x6b, 0xcc, 0xa6, 0x3c, 0x8b, 0xc4, 0x2e, 0x3e,
  0x2a, 0x61, 0x1c, 0xbd, 0x35, 0x20, 0xe6, 0x3e, 0xfd, 0x05, 0x04, 0x3f,
  0x17, 0x76, 0x2e, 0x3f, 0xf8, 0x63, 0xf1, 0x3d, 0xd6, 0xe3, 0xab, 0x3e,
  0x3d, 0x27, 0xba, 0xbe, 0x20, 0x3a, 0x71, 0xbd, 0x3c, 0xb6, 0x0c, 0x3e,
  0x77, 0xde, 0xe8, 0xbd, 0xfe, 0x2c, 0x46, 0x3e, 0x6c, 0x0e, 0x7e, 0x3f,
  0x7f, 0xf1, 0xaa, 0xbd, 0xdd, 0xe0, 0xca, 0xbe, 0x2f, 0x8b, 0xb3, 0xbe,
  0x57, 0x9c, 0xad, 0xbd, 0x94, 0x91, 0x20, 0xbe, 0xca, 0x8e, 0x04, 0x3f,
  0xf2, 0x53, 0x49, 0x3e, 0x7a, 0x10, 0xef, 0xbd, 0x9a, 0x80, 0xc6, 0xbd,
  0xb7, 0x7a, 0xbd, 0xbe, 0x50, 0x3a, 0xe7, 0xbd, 0xcd, 0x20, 0x00, 0xbe,
  0xf1, 0x27, 0xa4, 0x3d, 0x78, 0xba, 0xbb, 0x3d, 0xe8, 0x31, 0x4b, 0x3d,
  0x21, 0x44, 0x66, 0xbe, 0x00, 0xc9, 0x84, 0x3c, 0x7e, 0x63, 0x92, 0xbe,
  0xe4, 0xf8, 0x70, 0xbe, 0xf5, 0xbe, 0xc0, 0xbc, 0x6f, 0xa1, 0xda, 0xbd,
  0x6d, 0x72, 0x1a, 0xbe, 0xc2, 0x22, 0x06, 0xbe, 0x4a, 0xfe, 0xff, 0xff,
  0x10, 0x00, 0x00, 0x00, 0x05, 0x00, 0x00, 0x00, 0x14, 0x00, 0x00, 0x00,
  0x2c, 0x00, 0x00, 0x00, 0x02, 0x00, 0x00, 0x00, 0x10, 0x00, 0x00, 0x00,
  0x70, 0x00, 0x00, 0x00, 0x17, 0x00, 0x00, 0x00, 0x73, 0x65, 0x71, 0x75,
  0x65, 0x6e, 0x74, 0x69, 0x61, 0x6c, 0x2f, 0x64, 0x65, 0x6e, 0x73, 0x65,
  0x2f, 0x4d, 0x61, 0x74, 0x4d, 0x75, 0x6c, 0x00, 0x38, 0xfe, 0xff, 0xff,
  0x2e, 0xff, 0xff, 0xff, 0x04, 0x00, 0x00, 0x00, 0x08, 0x00, 0x00, 0x00,
  0xff, 0xff, 0xff, 0xff, 0x70, 0x00, 0x00, 0x00, 0x00, 0x00, 0x0e, 0x00,
  0x18, 0x00, 0x08, 0x00, 0x07, 0x00, 0x0c, 0x00, 0x10, 0x00, 0x14, 0x00,
  0x0e, 0x00, 0x00, 0x00, 0x00, 0x00, 0x00, 0x02, 0x10, 0x00, 0x00, 0x00,
  0x04, 0x00, 0x00, 0x00, 0x10, 0x00, 0x00, 0x00, 0x2c, 0x00, 0x00, 0x00,
  0x01, 0x00, 0x00, 0x00, 0x02, 0x00, 0x00, 0x00, 0x18, 0x00, 0x00, 0x00,
  0x73, 0x65, 0x71, 0x75, 0x65, 0x6e, 0x74, 0x69, 0x61, 0x6c, 0x2f, 0x66,
  0x6c, 0x61, 0x74, 0x74, 0x65, 0x6e, 0x2f, 0x43, 0x6f, 0x6e, 0x73, 0x74,
  0x00, 0x00, 0x00, 0x00, 0xa0, 0xfe, 0xff, 0xff, 0x96, 0xff, 0xff, 0xff,
  0x04, 0x00, 0x00, 0x00, 0x0c, 0x00, 0x00, 0x00, 0x5c, 0x68, 0x70, 0xbf,
  0x79, 0x84, 0x13, 0xc0, 0x8c, 0x62, 0x18, 0x40, 0x0a, 0xff, 0xff, 0xff,
  0x10, 0x00, 0x00, 0x00, 0x03, 0x00, 0x00, 0x00, 0x10, 0x00, 0x00, 0x00,
  0x3c, 0x00, 0x00, 0x00, 0x01, 0x00, 0x00, 0x00, 0x03, 0x00, 0x00, 0x00,
  0x29, 0x00, 0x00, 0x00, 0x73, 0x65, 0x71, 0x75, 0x65, 0x6e, 0x74, 0x69,
  0x61, 0x6c, 0x2f, 0x64, 0x65, 0x6e, 0x73, 0x65, 0x5f, 0x31, 0x2f, 0x42,
  0x69, 0x61, 0x73, 0x41, 0x64, 0x64, 0x2f, 0x52, 0x65, 0x61, 0x64, 0x56,
  0x61, 0x72, 0x69, 0x61, 0x62, 0x6c, 0x65, 0x4f, 0x70, 0x00, 0x00, 0x00,
  0x60, 0xff, 0xff, 0xff, 0x00, 0x00, 0x06, 0x00, 0x08, 0x00, 0x04, 0x00,
  0x06, 0x00, 0x00, 0x00, 0x04, 0x00, 0x00, 0x00, 0x40, 0x00, 0x00, 0x00,
  0xec, 0xf0, 0xd2, 0xbf, 0x20, 0xe5, 0x81, 0x40, 0x35, 0xaf, 0xa3, 0xbf,
  0x7b, 0x83, 0xa9, 0xbf, 0xbd, 0x1a, 0x94, 0xbf, 0x97, 0x62, 0xa0, 0xbf,
  0x17, 0x41, 0x13, 0xbf, 0x4f, 0x77, 0xe3, 0xbf, 0xc5, 0xda, 0x49, 0x40,
  0xa4, 0x86, 0x30, 0xbe, 0x1a, 0x85, 0x5e, 0xbf, 0x30, 0xcc, 0xa4, 0x40,
  0x68, 0xec, 0x8c, 0xbe, 0x76, 0xaa, 0x03, 0xbe, 0xec, 0xd5, 0xfa, 0xbd,
  0x55, 0x4f, 0x51, 0xbf, 0xae, 0xff, 0xff, 0xff, 0x10, 0x00, 0x00, 0x00,
  0x02, 0x00, 0x00, 0x00, 0x10, 0x00, 0x00, 0x00, 0x3c, 0x00, 0x00, 0x00,
  0x01, 0x00, 0x00, 0x00, 0x10, 0x00, 0x00, 0x00, 0x27, 0x00, 0x00, 0x00,
  0x73, 0x65, 0x71, 0x75, 0x65, 0x6e, 0x74, 0x69, 0x61, 0x6c, 0x2f, 0x64,
  0x65, 0x6e, 0x73, 0x65, 0x2f, 0x42, 0x69, 0x61, 0x73, 0x41, 0x64, 0x64,
  0x2f, 0x52, 0x65, 0x61, 0x64, 0x56, 0x61, 0x72, 0x69, 0x61, 0x62, 0x6c,
  0x65, 0x4f, 0x70, 0x00, 0x04, 0x00, 0x06, 0x00, 0x04, 0x00, 0x00, 0x00,
  0x00, 0x00, 0x0e, 0x00, 0x14, 0x00, 0x04, 0x00, 0x00, 0x00, 0x08, 0x00,
  0x0c, 0x00, 0x10, 0x00, 0x0e, 0x00, 0x00, 0x00, 0x10, 0x00, 0x00, 0x00,
  0x01, 0x00, 0x00, 0x00, 0x1c, 0x00, 0x00, 0x00, 0x2c, 0x00, 0x00, 0x00,
  0x04, 0x00, 0x00, 0x00, 0x01, 0x00, 0x00, 0x00, 0x40, 0x00, 0x00, 0x00,
  0x03, 0x00, 0x00, 0x00, 0x01, 0x00, 0x00, 0x00, 0x0c, 0x00, 0x00, 0x00,
  0x63, 0x6f, 0x6e, 0x76, 0x32, 0x64, 0x5f, 0x69, 0x6e, 0x70, 0x75, 0x74,
  0x00, 0x00, 0x00, 0x00, 0xfc, 0xff, 0xff, 0xff, 0x04, 0x00, 0x04, 0x00,
  0x04, 0x00, 0x00, 0x00
};

unsigned int model_tflite_len = 12316;// Fill the int in `src/model.cc` here